/* Copyright 2019 The TensorFlow Authors. All Rights Reserved.

Licensed under the Apache License, Version 2.0 (the "License");
you may not use this file except in compliance with the License.
You may obtain a copy of the License at

    http://www.apache.org/licenses/LICENSE-2.0

Unless required by applicable law or agreed to in writing, software
distributed under the License is distributed on an "AS IS" BASIS,
WITHOUT WARRANTIES OR CONDITIONS OF ANY KIND, either express or implied.
See the License for the specific language governing permissions and
limitations under the License.
==============================================================================*/

// Automatically created from a TensorFlow Lite flatbuffer using the command:
// xxd -i magic_wand_model.tflite > magic_wand_model_data.cc
// See the README for a full description of the creation process.

#include "magic_wand_model_data.h"

// Keep model aligned to 8 bytes to guarantee aligned 64-bit accesses.
alignas(8) const unsigned char g_magic_wand_model_data[] = {     0x20, 0x00, 0x00, 0x00, 0x54, 0x46, 0x4c, 0x33, 0x00, 0x00, 0x00, 0x00,
  0x14, 0x00, 0x20, 0x00, 0x1c, 0x00, 0x18, 0x00, 0x14, 0x00, 0x10, 0x00,
  0x0c, 0x00, 0x00, 0x00, 0x08, 0x00, 0x04, 0x00, 0x14, 0x00, 0x00, 0x00,
  0x1c, 0x00, 0x00, 0x00, 0x84, 0x00, 0x00, 0x00, 0xdc, 0x00, 0x00, 0x00,
  0xe4, 0x0d, 0x00, 0x00, 0xf4, 0x0d, 0x00, 0x00, 0x40, 0x1f, 0x00, 0x00,
  0x03, 0x00, 0x00, 0x00, 0x01, 0x00, 0x00, 0x00, 0x04, 0x00, 0x00, 0x00,
  0x06, 0xf0, 0xff, 0xff, 0x0c, 0x00, 0x00, 0x00, 0x1c, 0x00, 0x00, 0x00,
  0x38, 0x00, 0x00, 0x00, 0x0f, 0x00, 0x00, 0x00, 0x73, 0x65, 0x72, 0x76,
  0x69, 0x6e, 0x67, 0x5f, 0x64, 0x65, 0x66, 0x61, 0x75, 0x6c, 0x74, 0x00,
  0x01, 0x00, 0x00, 0x00, 0x04, 0x00, 0x00, 0x00, 0x98, 0xff, 0xff, 0xff,
  0x11, 0x00, 0x00, 0x00, 0x04, 0x00, 0x00, 0x00, 0x07, 0x00, 0x00, 0x00,
  0x64, 0x65, 0x6e, 0x73, 0x65, 0x5f, 0x33, 0x00, 0x01, 0x00, 0x00, 0x00,
  0x04, 0x00, 0x00, 0x00, 0xb8, 0xff, 0xff, 0xff, 0x10, 0x00, 0x00, 0x00,
  0x04, 0x00, 0x00, 0x00, 0x07, 0x00, 0x00, 0x00, 0x69, 0x6e, 0x70, 0x75,
  0x74, 0x5f, 0x32, 0x00, 0x02, 0x00, 0x00, 0x00, 0x34, 0x00, 0x00, 0x00,
  0x04, 0x00, 0x00, 0x00, 0xdc, 0xff, 0xff, 0xff, 0x12, 0x00, 0x00, 0x00,
  0x04, 0x00, 0x00, 0x00, 0x13, 0x00, 0x00, 0x00, 0x43, 0x4f, 0x4e, 0x56,
  0x45, 0x52, 0x53, 0x49, 0x4f, 0x4e, 0x5f, 0x4d, 0x45, 0x54, 0x41, 0x44,
  0x41, 0x54, 0x41, 0x00, 0x08, 0x00, 0x0c, 0x00, 0x08, 0x00, 0x04, 0x00,
  0x08, 0x00, 0x00, 0x00, 0x11, 0x00, 0x00, 0x00, 0x04, 0x00, 0x00, 0x00,
  0x13, 0x00, 0x00, 0x00, 0x6d, 0x69, 0x6e, 0x5f, 0x72, 0x75, 0x6e, 0x74,
  0x69, 0x6d, 0x65, 0x5f, 0x76, 0x65, 0x72, 0x73, 0x69, 0x6f, 0x6e, 0x00,
  0x13, 0x00, 0x00, 0x00, 0x04, 0x0d, 0x00, 0x00, 0xfc, 0x0c, 0x00, 0x00,
  0xac, 0x0c, 0x00, 0x00, 0x54, 0x0c, 0x00, 0x00, 0xb4, 0x0b, 0x00, 0x00,
  0xa4, 0x02, 0x00, 0x00, 0x84, 0x02, 0x00, 0x00, 0x34, 0x02, 0x00, 0x00,
  0x1c, 0x02, 0x00, 0x00, 0x0c, 0x01, 0x00, 0x00, 0xbc, 0x00, 0x00, 0x00,
  0xb4, 0x00, 0x00, 0x00, 0xac, 0x00, 0x00, 0x00, 0xa4, 0x00, 0x00, 0x00,
  0x9c, 0x00, 0x00, 0x00, 0x94, 0x00, 0x00, 0x00, 0x8c, 0x00, 0x00, 0x00,
  0x6c, 0x00, 0x00, 0x00, 0x04, 0x00, 0x00, 0x00, 0x9e, 0xf3, 0xff, 0xff,
  0x04, 0x00, 0x00, 0x00, 0x58, 0x00, 0x00, 0x00, 0x0c, 0x00, 0x00, 0x00,
  0x08, 0x00, 0x0e, 0x00, 0x08, 0x00, 0x04, 0x00, 0x08, 0x00, 0x00, 0x00,
  0x10, 0x00, 0x00, 0x00, 0x28, 0x00, 0x00, 0x00, 0x00, 0x00, 0x06, 0x00,
  0x08, 0x00, 0x04, 0x00, 0x06, 0x00, 0x00, 0x00, 0x04, 0x00, 0x00, 0x00,
  0x01, 0x00, 0x00, 0x00, 0xeb, 0x03, 0x00, 0x00, 0x00, 0x00, 0x0a, 0x00,
  0x10, 0x00, 0x0c, 0x00, 0x08, 0x00, 0x04, 0x00, 0x0a, 0x00, 0x00, 0x00,
  0x02, 0x00, 0x00, 0x00, 0x02, 0x00, 0x00, 0x00, 0x04, 0x00, 0x00, 0x00,
  0x06, 0x00, 0x00, 0x00, 0x32, 0x2e, 0x31, 0x31, 0x2e, 0x30, 0x00, 0x00,
  0x02, 0xf4, 0xff, 0xff, 0x04, 0x00, 0x00, 0x00, 0x10, 0x00, 0x00, 0x00,
  0x31, 0x2e, 0x36, 0x2e, 0x30, 0x00, 0x00, 0x00, 0x00, 0x00, 0x00, 0x00,
  0x00, 0x00, 0x00, 0x00, 0x58, 0xea, 0xff, 0xff, 0x5c, 0xea, 0xff, 0xff,
  0x60, 0xea, 0xff, 0xff, 0x64, 0xea, 0xff, 0xff, 0x68, 0xea, 0xff, 0xff,
  0x6c, 0xea, 0xff, 0xff, 0x36, 0xf4, 0xff, 0xff, 0x04, 0x00, 0x00, 0x00,
  0x40, 0x00, 0x00, 0x00, 0xd5, 0x02, 0x45, 0xd1, 0xb2, 0x48, 0x04, 0xf6,
  0x16, 0x19, 0xf8, 0x01, 0x2e, 0x30, 0xf7, 0xba, 0x1b, 0xd4, 0xb6, 0x13,
  0xfe, 0x01, 0xef, 0xee, 0xe5, 0xbb, 0xdb, 0x34, 0x2e, 0xe4, 0xe4, 0x10,
  0x2e, 0x37, 0x07, 0xbd, 0xfa, 0xc5, 0xea, 0xd8, 0x81, 0x05, 0xab, 0x14,
  0x2a, 0x25, 0x20, 0xf6, 0xf0, 0x2c, 0xec, 0xfe, 0x4d, 0x08, 0x12, 0x05,
  0x12, 0xcf, 0x28, 0x9c, 0x33, 0x05, 0x0f, 0xec, 0x82, 0xf4, 0xff, 0xff,
  0x04, 0x00, 0x00, 0x00, 0x00, 0x01, 0x00, 0x00, 0xe2, 0x24, 0xe9, 0xc4,
  0x38, 0x0b, 0xf3, 0xe6, 0x4b, 0x33, 0xd3, 0x11, 0x02, 0xf9, 0x54, 0x14,
  0x17, 0xe5, 0x07, 0x09, 0xf9, 0xf7, 0xd2, 0x3a, 0x20, 0x09, 0x49, 0x22,
  0xe6, 0x35, 0x45, 0x2b, 0x40, 0x24, 0xef, 0x03, 0x21, 0x38, 0x1f, 0x32,
  0xfc, 0x18, 0x44, 0xdf, 0xbc, 0x4a, 0x36, 0x41, 0x0d, 0x16, 0x19, 0x5c,
  0xbd, 0x26, 0x26, 0xdb, 0xf8, 0x25, 0xe5, 0xef, 0x49, 0x04, 0xcb, 0xf2,
  0xdf, 0xdf, 0x38, 0x4c, 0x8f, 0x18, 0x03, 0xd4, 0xf7, 0xf6, 0xcd, 0x3e,
  0x23, 0xe2, 0x97, 0x3e, 0x0f, 0x2d, 0xc6, 0x41, 0xcc, 0x3b, 0x37, 0x0d,
  0xe5, 0x15, 0x03, 0xe2, 0xf7, 0x44, 0x01, 0x17, 0xd2, 0x08, 0xf4, 0xf9,
  0x10, 0x11, 0x0f, 0x1e, 0xf9, 0xec, 0x19, 0x05, 0x03, 0xee, 0x18, 0xde,
  0x13, 0x21, 0x08, 0x1f, 0x13, 0xf6, 0xf4, 0x0c, 0xea, 0xfe, 0xf1, 0xe6,
  0xe1, 0xd8, 0xf7, 0xe6, 0x20, 0xcc, 0x14, 0x29, 0xb0, 0x1c, 0xff, 0x20,
  0xf0, 0x26, 0xfb, 0x01, 0xda, 0x35, 0x8e, 0xed, 0x0c, 0x1a, 0xdc, 0x81,
  0x1d, 0x33, 0xdf, 0x26, 0x2e, 0xed, 0x46, 0x22, 0xd7, 0x1e, 0x52, 0x25,
  0x30, 0xf8, 0x2d, 0x48, 0xbd, 0x2d, 0xf3, 0x0f, 0xe3, 0xdb, 0xf1, 0x0c,
  0x22, 0xe0, 0xc5, 0xd9, 0xc7, 0x21, 0x2b, 0xf6, 0x64, 0xe8, 0xc1, 0xcd,
  0x23, 0x06, 0x20, 0xe9, 0x29, 0xbd, 0x4e, 0xf8, 0xdb, 0xeb, 0x18, 0xf2,
  0xfe, 0x02, 0xec, 0x09, 0xd4, 0x0e, 0xff, 0x1c, 0xe3, 0xd6, 0x19, 0x02,
  0x04, 0x16, 0xca, 0xaf, 0x25, 0x13, 0x10, 0x2c, 0xdf, 0x23, 0x25, 0x2b,
  0xd8, 0x4a, 0x4f, 0x3b, 0xd6, 0xd7, 0xde, 0x27, 0xfd, 0xd5, 0xe6, 0x1e,
  0x22, 0xec, 0x16, 0xfa, 0xed, 0x1e, 0xf1, 0x12, 0x08, 0xf6, 0x34, 0xd1,
  0x4d, 0xf4, 0x0b, 0xcc, 0x58, 0x43, 0xe5, 0x01, 0x4d, 0xc2, 0x0d, 0x1f,
  0x8e, 0xf5, 0xff, 0xff, 0x04, 0x00, 0x00, 0x00, 0x08, 0x00, 0x00, 0x00,
  0x01, 0x00, 0x00, 0x00, 0x02, 0x00, 0x00, 0x00, 0xa2, 0xf5, 0xff, 0xff,
  0x04, 0x00, 0x00, 0x00, 0x40, 0x00, 0x00, 0x00, 0x87, 0xff, 0xff, 0xff,
  0xc3, 0x00, 0x00, 0x00, 0xdc, 0x00, 0x00, 0x00, 0x53, 0xff, 0xff, 0xff,
  0x8a, 0x00, 0x00, 0x00, 0x6d, 0x00, 0x00, 0x00, 0xf6, 0xff, 0xff, 0xff,
  0x0d, 0x00, 0x00, 0x00, 0x2d, 0x00, 0x00, 0x00, 0xbd, 0x00, 0x00, 0x00,
  0xe2, 0xff, 0xff, 0xff, 0x5a, 0xff, 0xff, 0xff, 0x00, 0x00, 0x00, 0x00,
  0x08, 0x01, 0x00, 0x00, 0xad, 0xff, 0xff, 0xff, 0x22, 0xff, 0xff, 0xff,
  0xee, 0xf5, 0xff, 0xff, 0x04, 0x00, 0x00, 0x00, 0x10, 0x00, 0x00, 0x00,
  0x42, 0x00, 0x00, 0x00, 0x97, 0xff, 0xff, 0xff, 0x12, 0x00, 0x00, 0x00,
  0x2c, 0x00, 0x00, 0x00, 0x0a, 0xf6, 0xff, 0xff, 0x04, 0x00, 0x00, 0x00,
  0x00, 0x09, 0x00, 0x00, 0xf8, 0xf9, 0xe1, 0xe5, 0x04, 0x30, 0x3a, 0x17,
  0xfe, 0xf2, 0x6e, 0xf4, 0x02, 0x36, 0x0f, 0x12, 0x08, 0x54, 0xbf, 0x0a,
  0x35, 0xc0, 0xda, 0xf6, 0x17, 0x07, 0x1a, 0x1c, 0xfa, 0x39, 0x28, 0x5c,
  0x5d, 0x7f, 0xaf, 0x0a, 0xf5, 0xb9, 0xbc, 0xc1, 0x0d, 0x50, 0x41, 0xc4,
  0xdf, 0x6b, 0x08, 0x22, 0x64, 0x3d, 0xaf, 0xe9, 0x33, 0x09, 0x37, 0xc8,
  0xab, 0x4a, 0x7b, 0x2a, 0xd2, 0x3c, 0x0c, 0x13, 0x75, 0x20, 0xee, 0x1a,
  0xd8, 0xf3, 0x26, 0xdc, 0xf7, 0xf0, 0x3e, 0xf4, 0x17, 0x79, 0x39, 0x20,
  0x71, 0x53, 0xf5, 0xb6, 0xc8, 0xbe, 0xd9, 0xf9, 0xd9, 0x4f, 0x54, 0xe5,
  0x22, 0x28, 0x2a, 0x51, 0x6b, 0x21, 0xee, 0x0f, 0xce, 0xdb, 0x06, 0x15,
  0x12, 0x17, 0x48, 0x12, 0x0b, 0x11, 0xe6, 0xfc, 0x3a, 0x1e, 0x0e, 0xe3,
  0x38, 0x15, 0xe1, 0xc8, 0xac, 0x32, 0x5e, 0xf8, 0xba, 0x54, 0xec, 0x68,
  0x2c, 0x45, 0x01, 0xfe, 0xdd, 0x97, 0xba, 0xa9, 0xdd, 0x44, 0x1a, 0xad,
  0xbc, 0x4f, 0x14, 0x36, 0x4b, 0x2c, 0xdd, 0xb7, 0xab, 0xe6, 0x81, 0x8f,
  0x92, 0x10, 0x0c, 0xa9, 0xb4, 0x32, 0xde, 0xf9, 0x26, 0x1f, 0x15, 0x03,
  0xcb, 0xc4, 0xcd, 0x04, 0xcb, 0x1a, 0xff, 0xf5, 0xed, 0x3e, 0xce, 0xd3,
  0x0f, 0xe4, 0xfb, 0xd2, 0xba, 0x41, 0x0e, 0x4c, 0xe6, 0x41, 0xed, 0xee,
  0x18, 0x05, 0x14, 0xc0, 0x19, 0x2f, 0xe6, 0x1d, 0xf2, 0xa1, 0xbd, 0x20,
  0x2b, 0x44, 0x3a, 0xcf, 0x03, 0x42, 0x39, 0x04, 0x55, 0x33, 0xd5, 0xfe,
  0xd3, 0xfa, 0x06, 0x01, 0xf7, 0x20, 0xe3, 0xf3, 0x1f, 0xf2, 0xe9, 0xd1,
  0x00, 0xfe, 0xe4, 0xc6, 0xee, 0x44, 0xe6, 0x2b, 0xed, 0x0b, 0xd5, 0x47,
  0xf3, 0x1f, 0xf7, 0xc8, 0x77, 0x2e, 0xdc, 0x29, 0xdf, 0x86, 0x27, 0xe1,
  0xfd, 0x18, 0x0e, 0xa8, 0xfa, 0x51, 0x32, 0xfe, 0x49, 0x17, 0xcc, 0x21,
  0x1f, 0x9c, 0xdf, 0x1b, 0x19, 0x3c, 0xf9, 0xd4, 0x0f, 0x3d, 0x31, 0xbe,
  0x36, 0x19, 0xdd, 0x2b, 0x00, 0x33, 0x10, 0x01, 0x18, 0x41, 0x1a, 0x3c,
  0x26, 0x12, 0x0d, 0xe2, 0xd3, 0x14, 0x45, 0x29, 0x25, 0x3b, 0x64, 0x1b,
  0x17, 0x2d, 0xe5, 0x42, 0x4a, 0xe1, 0x17, 0x64, 0x01, 0x03, 0x24, 0x28,
  0x5c, 0x49, 0x2a, 0x2f, 0x34, 0x17, 0x34, 0x7b, 0x4c, 0xe5, 0x1d, 0x60,
  0xde, 0x10, 0x52, 0x15, 0x66, 0x12, 0x37, 0x3f, 0x52, 0x1c, 0xff, 0x45,
  0x3a, 0xf5, 0x2f, 0x78, 0xc1, 0x17, 0x2b, 0x16, 0x4a, 0x2e, 0x37, 0x1a,
  0x38, 0x07, 0x15, 0x61, 0x53, 0xee, 0x0a, 0x43, 0xf6, 0x1d, 0x5b, 0x40,
  0x69, 0x57, 0x3c, 0x43, 0x35, 0x23, 0x0d, 0x61, 0x32, 0xdb, 0x26, 0x6b,
  0x09, 0xf9, 0x6c, 0x44, 0x55, 0x1c, 0x36, 0x38, 0x20, 0x13, 0x3d, 0x4b,
  0x4b, 0xdc, 0x25, 0x51, 0xfd, 0xec, 0x22, 0x37, 0x22, 0x69, 0x5f, 0x29,
  0x59, 0xfd, 0xe8, 0x7f, 0x53, 0x13, 0xf6, 0x40, 0xcf, 0x01, 0x43, 0x2c,
  0x47, 0x1d, 0x55, 0x5b, 0x55, 0xfb, 0x30, 0x50, 0x63, 0xd0, 0x31, 0x7c,
  0xdf, 0xed, 0x3c, 0x3e, 0x27, 0x29, 0x3a, 0x4c, 0x13, 0xf9, 0x07, 0x50,
  0x24, 0xe2, 0x2f, 0x69, 0xea, 0xcb, 0xac, 0xd8, 0x21, 0x27, 0xf0, 0x3d,
  0x2b, 0x1e, 0xb6, 0x0d, 0x12, 0x0b, 0xfd, 0xcf, 0xe9, 0x89, 0xbe, 0x0c,
  0x0c, 0x21, 0x2b, 0x22, 0x03, 0x14, 0xda, 0xdc, 0x45, 0xca, 0xfc, 0xd4,
  0x08, 0x9d, 0xc3, 0x2f, 0x2a, 0xfb, 0x24, 0x1e, 0x15, 0x38, 0x19, 0xa1,
  0x35, 0xfb, 0xf4, 0x09, 0x2e, 0x01, 0x31, 0xed, 0x4d, 0xe7, 0x65, 0xbc,
  0xd2, 0xf7, 0x23, 0xe0, 0xc3, 0xc2, 0x0e, 0x6f, 0xe9, 0xf1, 0x2f, 0xd7,
  0x49, 0xd4, 0x15, 0xc6, 0xd2, 0xe9, 0x2e, 0xdf, 0x02, 0xe7, 0x12, 0x71,
  0xf0, 0x0b, 0x2a, 0xe5, 0xfb, 0xcf, 0x16, 0xb7, 0xf7, 0x03, 0x1f, 0x2b,
  0xf2, 0x0f, 0x22, 0x17, 0x1d, 0x1c, 0x03, 0x10, 0x12, 0xed, 0x16, 0x04,
  0xeb, 0xec, 0x24, 0x4b, 0x0a, 0x22, 0x02, 0x7f, 0x13, 0x21, 0xe8, 0xe8,
  0x3d, 0xd9, 0x29, 0x18, 0x16, 0xe2, 0x0a, 0x2e, 0x36, 0x15, 0xfc, 0x4f,
  0x08, 0xf7, 0xfa, 0x27, 0xfa, 0x9c, 0x32, 0x2c, 0x20, 0xf4, 0x0e, 0xba,
  0x20, 0xdd, 0x32, 0x3b, 0x3e, 0xf4, 0xa7, 0x43, 0x2e, 0x22, 0x1d, 0x47,
  0x2b, 0x25, 0xee, 0xf4, 0x44, 0xfe, 0x49, 0x0f, 0x12, 0xb8, 0x95, 0x57,
  0x2c, 0x51, 0x2a, 0x29, 0x2d, 0x2e, 0x07, 0xf5, 0x37, 0x0d, 0x2a, 0x14,
  0x0a, 0xb7, 0x81, 0x5a, 0x1e, 0x4e, 0x3e, 0x53, 0x4b, 0x1b, 0x0c, 0x16,
  0x39, 0xfa, 0x2d, 0x2a, 0x23, 0xee, 0x35, 0x0a, 0xd3, 0x38, 0xfb, 0xe3,
  0xde, 0x12, 0xff, 0x0d, 0xf9, 0xd7, 0x15, 0xe1, 0xe6, 0xdc, 0x04, 0x19,
  0xec, 0x39, 0xfc, 0x02, 0x00, 0x11, 0x0b, 0x12, 0x0b, 0x08, 0xee, 0xe0,
  0xf3, 0xd9, 0x1b, 0x26, 0xfc, 0x27, 0x05, 0x48, 0x2a, 0x14, 0xe7, 0x19,
  0x29, 0xf3, 0x0a, 0x01, 0xd8, 0x09, 0x1d, 0xd0, 0xe9, 0x2c, 0xcf, 0xb5,
  0xd2, 0x2e, 0xd2, 0x15, 0xbb, 0xee, 0xb3, 0xbc, 0xc3, 0xfc, 0x1f, 0x9d,
  0xd1, 0x42, 0xe1, 0xda, 0xde, 0x22, 0xe0, 0x19, 0xc1, 0x08, 0x8c, 0xbb,
  0xfd, 0xf0, 0x2a, 0xb2, 0xbf, 0x4f, 0xe0, 0x11, 0xd3, 0xdf, 0xdb, 0x38,
  0x16, 0x0b, 0xa2, 0xbe, 0x0f, 0x55, 0xdc, 0xe2, 0xe4, 0xff, 0x2b, 0xd6,
  0x0a, 0xfb, 0x7f, 0x17, 0xdc, 0x1e, 0x09, 0x56, 0x40, 0x43, 0xe7, 0xc9,
  0x0d, 0x26, 0x28, 0xb7, 0xd3, 0x44, 0x0d, 0xe6, 0xec, 0x3a, 0x29, 0x56,
  0x41, 0x10, 0xff, 0xfe, 0xe1, 0xfa, 0xfd, 0x01, 0xb0, 0x34, 0x64, 0xbc,
  0x12, 0x2b, 0x2d, 0xf0, 0x45, 0x2b, 0x0c, 0xfe, 0x2a, 0x24, 0x2b, 0xf6,
  0xde, 0x4f, 0x63, 0x06, 0xc6, 0x6c, 0x1c, 0x42, 0x64, 0x66, 0x17, 0xdb,
  0x34, 0xdc, 0x3a, 0xec, 0x19, 0x00, 0x0c, 0xea, 0xec, 0x0c, 0x14, 0x45,
  0x0d, 0x3d, 0xeb, 0xd1, 0xe2, 0xab, 0x19, 0xfb, 0x0d, 0x1e, 0x21, 0xd8,
  0x06, 0x55, 0xea, 0x18, 0x41, 0x4d, 0xef, 0x0a, 0x42, 0x32, 0x22, 0x08,
  0x17, 0x32, 0x59, 0x41, 0x02, 0x7b, 0xd4, 0x45, 0x57, 0x6a, 0x2c, 0xb5,
  0x03, 0x06, 0xef, 0x0e, 0xf3, 0x3a, 0x1e, 0x07, 0x1a, 0x35, 0xd1, 0x66,
  0x1a, 0x3a, 0x23, 0xef, 0xe1, 0x0d, 0xed, 0xc5, 0xe7, 0x10, 0x47, 0xd7,
  0xe8, 0x22, 0x05, 0x2e, 0x0a, 0x46, 0x1b, 0xf2, 0x26, 0xd7, 0x0a, 0x04,
  0xcf, 0xe4, 0x46, 0x21, 0xe0, 0x56, 0xc0, 0x23, 0x32, 0x71, 0xfd, 0x9a,
  0xe2, 0xb4, 0x06, 0xd0, 0xbf, 0xea, 0x30, 0x44, 0xe8, 0x40, 0x00, 0x0d,
  0x20, 0x4e, 0x01, 0xaf, 0xe2, 0xe2, 0xec, 0xe5, 0xc2, 0x13, 0xf5, 0x3c,
  0xe8, 0x54, 0x02, 0x38, 0x11, 0xf1, 0xc1, 0x15, 0x24, 0x08, 0xeb, 0xf8,
  0xfd, 0x24, 0x0d, 0x07, 0xe7, 0x4e, 0xd1, 0x0d, 0x22, 0x2d, 0x0d, 0xc5,
  0x10, 0x11, 0xee, 0x0a, 0xf4, 0x01, 0xf0, 0x02, 0x0f, 0x42, 0x0e, 0xeb,
  0xfc, 0x36, 0x09, 0xf0, 0x03, 0xec, 0xc7, 0xda, 0xf0, 0x1e, 0x19, 0xff,
  0x33, 0xfe, 0x1f, 0x06, 0x3a, 0x1e, 0x0e, 0x94, 0xf0, 0x3d, 0x13, 0x81,
  0xca, 0x26, 0xfa, 0x17, 0x9d, 0x2f, 0xdb, 0x3d, 0x26, 0x00, 0xbe, 0xd7,
  0xc4, 0x23, 0xdb, 0xc7, 0x90, 0x3e, 0x1e, 0x3a, 0xfc, 0xf5, 0xb7, 0x14,
  0xe2, 0x37, 0xfc, 0xb5, 0xbf, 0x45, 0xf3, 0x19, 0xb7, 0x13, 0x0f, 0x4e,
  0x44, 0x1d, 0xd9, 0x0b, 0x39, 0x75, 0xc1, 0x0b, 0xc4, 0x15, 0xeb, 0xc2,
  0xde, 0x40, 0x68, 0xe0, 0x06, 0x45, 0x4d, 0x0e, 0x6c, 0x4d, 0xbf, 0x29,
  0xd0, 0xf5, 0xbd, 0xef, 0xcf, 0x29, 0x31, 0xa1, 0xe4, 0x3e, 0x57, 0x03,
  0x36, 0x6b, 0xc5, 0x20, 0x01, 0xd5, 0xa8, 0xd8, 0xe3, 0x26, 0x3c, 0xc2,
  0xb4, 0x2b, 0x1c, 0xff, 0x25, 0x7a, 0xd8, 0xf9, 0xda, 0xcc, 0xad, 0xb7,
  0xcf, 0x49, 0x7f, 0xb5, 0xd9, 0x35, 0x45, 0xdd, 0x3a, 0x4b, 0xcf, 0x36,
  0xdf, 0x04, 0xca, 0xe2, 0xc2, 0x29, 0x4b, 0xdb, 0xd2, 0x20, 0x0e, 0x29,
  0x33, 0x2b, 0xa4, 0x3f, 0xda, 0xf9, 0xb4, 0xb4, 0xb1, 0x4c, 0x62, 0x8b,
  0xe3, 0x75, 0x0e, 0xff, 0x2c, 0x6f, 0xca, 0xea, 0xf4, 0xff, 0xef, 0xf4,
  0xb7, 0x49, 0x2b, 0xc5, 0xda, 0x38, 0x2b, 0x0e, 0x3f, 0x35, 0xf9, 0x1b,
  0xfb, 0xd3, 0xbd, 0x03, 0xca, 0x56, 0x34, 0xc7, 0xa5, 0x54, 0x1a, 0x21,
  0x2e, 0x54, 0xf2, 0x03, 0xe1, 0xb3, 0xae, 0xcd, 0xd5, 0x2b, 0x4d, 0xd4,
  0xbb, 0x51, 0x1e, 0xca, 0x0b, 0x0a, 0x91, 0x6c, 0x26, 0x11, 0x25, 0x6e,
  0x36, 0x9f, 0xfd, 0xd8, 0x35, 0x03, 0x6a, 0xb8, 0xf9, 0xe6, 0xba, 0x43,
  0x15, 0x1d, 0xf6, 0x72, 0x70, 0xda, 0xdc, 0xdc, 0x5f, 0xaf, 0x59, 0xed,
  0x1e, 0xe9, 0x11, 0x76, 0x32, 0x21, 0x1c, 0x35, 0x2d, 0xe9, 0x22, 0x09,
  0x0f, 0x0b, 0xff, 0xe3, 0x0e, 0xeb, 0xd4, 0x3b, 0x21, 0x4c, 0xec, 0x4b,
  0x37, 0xfe, 0xf9, 0x2c, 0x65, 0xcb, 0x68, 0x11, 0xbf, 0xbf, 0xc7, 0x6a,
  0x13, 0x43, 0x4d, 0x41, 0x62, 0xbb, 0xe4, 0xfc, 0x5a, 0xaa, 0x59, 0xe8,
  0xff, 0xe4, 0xd5, 0x3c, 0x05, 0x75, 0x30, 0x37, 0x1b, 0xe5, 0xec, 0x3c,
  0x1a, 0xcc, 0x59, 0xfe, 0xf0, 0xd9, 0x3a, 0xb9, 0xc2, 0x30, 0x92, 0xee,
  0x25, 0x30, 0x83, 0x21, 0xe0, 0xc4, 0x24, 0xb0, 0xee, 0xcd, 0x3d, 0x31,
  0xfc, 0x4b, 0xea, 0x10, 0xf5, 0xd6, 0xc8, 0x2a, 0x43, 0x18, 0xfc, 0x91,
  0xdf, 0xb3, 0xf0, 0x35, 0xc9, 0x6c, 0xd9, 0x7f, 0x48, 0xd9, 0xe4, 0x70,
  0x35, 0x17, 0xd6, 0xe3, 0x4d, 0x2a, 0x26, 0x12, 0x38, 0xff, 0x1a, 0xf6,
  0x3f, 0x50, 0xfd, 0xf6, 0x08, 0xf8, 0x05, 0x00, 0x02, 0xe9, 0x19, 0x5a,
  0xda, 0x04, 0x24, 0x42, 0x60, 0x13, 0x25, 0x39, 0x0d, 0x1b, 0x5e, 0xc0,
  0x21, 0xef, 0x22, 0x57, 0x45, 0x7f, 0x34, 0x4a, 0x11, 0x2f, 0x23, 0x23,
  0x48, 0xfd, 0x08, 0x0d, 0x20, 0x39, 0xf0, 0x5b, 0xed, 0xee, 0x1d, 0x32,
  0x52, 0x3c, 0x08, 0xc2, 0x4e, 0x28, 0x41, 0x31, 0x36, 0x47, 0xf5, 0x0f,
  0x00, 0x1b, 0xf1, 0x6c, 0x12, 0x04, 0xf2, 0x18, 0x3c, 0x4f, 0x34, 0xe0,
  0xf7, 0x01, 0x1f, 0x51, 0x03, 0x3d, 0xf6, 0x69, 0x2d, 0x5e, 0x05, 0x30,
  0x3f, 0x30, 0x14, 0xf9, 0x38, 0x42, 0xed, 0x1b, 0x0d, 0x16, 0x31, 0x34,
  0x42, 0x29, 0xdb, 0x01, 0x4b, 0x0c, 0x5a, 0x3c, 0x26, 0x11, 0x19, 0x03,
  0x33, 0x4a, 0x2c, 0x3b, 0x0d, 0x4e, 0x24, 0xf6, 0x0f, 0x2e, 0x56, 0x23,
  0x47, 0xed, 0x34, 0x2d, 0x06, 0x2d, 0xfa, 0x4e, 0x18, 0x55, 0xee, 0x69,
  0x30, 0x07, 0x43, 0xec, 0x30, 0x5c, 0xef, 0x07, 0xa2, 0x86, 0x9a, 0xa5,
  0xbf, 0x3c, 0x37, 0xce, 0xbe, 0x5f, 0xf0, 0x9b, 0x58, 0x4a, 0x02, 0x11,
  0xd4, 0xd4, 0x98, 0xb9, 0xaa, 0x08, 0x32, 0xb6, 0xa2, 0x33, 0x17, 0xa8,
  0x31, 0x15, 0xd7, 0x26, 0xd5, 0xd0, 0xd4, 0xe9, 0xa0, 0x35, 0xf4, 0xd1,
  0xc3, 0x43, 0xdf, 0xbc, 0x19, 0x20, 0xb9, 0x25, 0xfe, 0xcd, 0xf2, 0xfd,
  0xd4, 0x16, 0x1b, 0xae, 0xe3, 0x2c, 0x1f, 0xdb, 0x3e, 0x47, 0xed, 0x05,
  0xda, 0xcc, 0xc9, 0xec, 0xe6, 0x2e, 0x1f, 0xe9, 0xe9, 0x38, 0xfd, 0xba,
  0x2b, 0x52, 0xdb, 0x11, 0xd5, 0x0f, 0xf3, 0x01, 0xfa, 0x02, 0x43, 0xc6,
  0xc9, 0x33, 0x25, 0xf3, 0x60, 0x18, 0x88, 0x1b, 0xbe, 0x9a, 0xd7, 0x08,
  0xd0, 0x1e, 0x28, 0x81, 0xef, 0x54, 0x43, 0xf5, 0x21, 0x34, 0xc0, 0x37,
  0x04, 0xd7, 0xe3, 0xe7, 0x00, 0x46, 0x15, 0x8f, 0x05, 0x27, 0x3a, 0xe4,
  0x44, 0x13, 0xcb, 0x0a, 0x0d, 0xd4, 0x04, 0xe2, 0xd5, 0x22, 0x47, 0xbf,
  0xd7, 0x48, 0x33, 0xd6, 0x29, 0x0b, 0x3f, 0x3a, 0x55, 0x3c, 0x22, 0x7a,
  0x24, 0x41, 0x27, 0x75, 0x2d, 0xe1, 0x37, 0x24, 0x24, 0x02, 0x57, 0x69,
  0x75, 0x58, 0x0a, 0xf7, 0x0e, 0x2d, 0x41, 0x10, 0xc3, 0xf1, 0x50, 0x5c,
  0x29, 0xfb, 0x2b, 0x07, 0x34, 0xdf, 0xea, 0xd6, 0x30, 0x05, 0x3d, 0xa2,
  0xd9, 0x09, 0x2a, 0x2b, 0xf8, 0x12, 0x76, 0x5f, 0x23, 0x3e, 0x21, 0x3a,
  0x57, 0xe4, 0x42, 0x4a, 0x41, 0x02, 0x67, 0xf8, 0x15, 0x17, 0x18, 0x3e,
  0x46, 0x23, 0x47, 0x22, 0xfd, 0x3f, 0x25, 0x2e, 0xd7, 0xdd, 0x2c, 0x58,
  0x0c, 0x23, 0x33, 0x45, 0x54, 0x09, 0x37, 0x8f, 0xe9, 0xfb, 0x03, 0x9b,
  0xb1, 0x00, 0x2c, 0x09, 0xdb, 0xf7, 0x67, 0x60, 0x41, 0x49, 0x30, 0x1a,
  0x42, 0xe5, 0x28, 0x7f, 0x53, 0x1b, 0x65, 0x00, 0x08, 0x38, 0x05, 0x30,
  0x6a, 0x44, 0x2c, 0xca, 0x1d, 0xe2, 0x4f, 0xff, 0xdf, 0x13, 0x08, 0x3b,
  0xf2, 0x45, 0x36, 0x01, 0x3f, 0x04, 0xfd, 0xb1, 0x0f, 0x36, 0x1f, 0x99,
  0xce, 0x1a, 0x2f, 0x44, 0xd0, 0xd4, 0x50, 0x20, 0x43, 0x44, 0x3a, 0x42,
  0x3b, 0x17, 0xee, 0x36, 0x26, 0xc2, 0x43, 0x71, 0xbe, 0xe6, 0x2c, 0x1e,
  0x30, 0x68, 0x57, 0x54, 0x41, 0x0e, 0xe3, 0x65, 0x5b, 0xd4, 0x47, 0x54,
  0xc3, 0x27, 0x49, 0x01, 0x2b, 0x34, 0x7a, 0x39, 0x67, 0x36, 0x35, 0x7f,
  0x6a, 0xc9, 0x53, 0x59, 0xef, 0x02, 0x26, 0x13, 0x2b, 0x5a, 0x51, 0x65,
  0x30, 0x12, 0xd3, 0x79, 0x37, 0xde, 0xf5, 0x40, 0xfe, 0xf0, 0x58, 0x27,
  0x3c, 0x40, 0x36, 0x35, 0x1c, 0x22, 0xea, 0x40, 0x7d, 0xc4, 0x06, 0x78,
  0xc1, 0x04, 0x59, 0x01, 0x59, 0x47, 0x52, 0x39, 0x60, 0xee, 0x23, 0x7b,
  0x44, 0x0e, 0x4e, 0x66, 0xd2, 0x14, 0x65, 0x46, 0x5e, 0x39, 0x6d, 0x56,
  0x40, 0xf5, 0x10, 0x74, 0x69, 0xe3, 0xfe, 0x31, 0xb6, 0xe0, 0x26, 0x44,
  0x27, 0x5a, 0x5f, 0x28, 0x69, 0x15, 0xe4, 0x5a, 0x75, 0x0a, 0x00, 0x44,
  0xbb, 0xf4, 0x54, 0x40, 0x6b, 0x31, 0x40, 0x40, 0x27, 0x17, 0xfc, 0x66,
  0x43, 0x10, 0x15, 0x72, 0x35, 0x1c, 0xa8, 0x24, 0xdc, 0x2c, 0xe6, 0xc5,
  0x9e, 0x3c, 0x6c, 0xaa, 0xf9, 0x62, 0x30, 0x34, 0x70, 0x6f, 0xd9, 0x2f,
  0x00, 0x15, 0xe4, 0xa2, 0xa8, 0x67, 0x4f, 0xba, 0xdb, 0x6e, 0x27, 0x2e,
  0x5d, 0x6a, 0xa9, 0x1d, 0xbf, 0xcf, 0xb7, 0xc6, 0xe3, 0x41, 0x36, 0x9b,
  0x98, 0x2b, 0x5e, 0x07, 0x65, 0x75, 0xac, 0x22, 0xfe, 0xeb, 0xd7, 0xd0,
  0x8f, 0x6f, 0x73, 0xb9, 0xbc, 0x7f, 0x30, 0x42, 0x4a, 0x5a, 0xb1, 0xe0,
  0x1a, 0x0b, 0xfd, 0xe6, 0x98, 0x4c, 0x48, 0xc8, 0xee, 0x72, 0xfd, 0x36,
  0x64, 0x67, 0x8c, 0x1f, 0xe9, 0xe1, 0xee, 0xa3, 0x92, 0x3c, 0x65, 0xcd,
  0xd2, 0x6b, 0x24, 0x05, 0x43, 0x56, 0xbb, 0xd3, 0xd1, 0xf7, 0xb7, 0xcf,
  0xaf, 0x48, 0x7b, 0xc7, 0xa4, 0x3d, 0xf1, 0x1c, 0x65, 0x57, 0xb7, 0x13,
  0xf0, 0xf9, 0xc7, 0xab, 0xc3, 0x4f, 0x64, 0xc4, 0xad, 0x79, 0x30, 0x40,
  0x77, 0x61, 0x98, 0x15, 0xd5, 0xb3, 0xba, 0xbe, 0xa0, 0x32, 0x5b, 0xbb,
  0xa4, 0x65, 0x2d, 0xee, 0xe3, 0x15, 0x0d, 0xb8, 0xb2, 0x9f, 0xc2, 0xcc,
  0xc9, 0xce, 0xed, 0xe7, 0xa4, 0x09, 0xb7, 0xbd, 0xe9, 0x41, 0x2e, 0xaf,
  0xb1, 0x81, 0xc6, 0xb5, 0xac, 0xf7, 0xe3, 0xf3, 0xd7, 0x22, 0xbb, 0xd0,
  0x11, 0x2c, 0x3c, 0xb3, 0xc6, 0xa0, 0xe9, 0xb9, 0xa8, 0xea, 0xcb, 0xe4,
  0xc6, 0x1a, 0xce, 0xe7, 0x19, 0x06, 0xe7, 0x16, 0x10, 0xba, 0x11, 0x06,
  0x08, 0x19, 0x08, 0xd9, 0x19, 0x22, 0x1f, 0xff, 0x0f, 0x07, 0xe5, 0x05,
  0x0b, 0xcf, 0x18, 0x0f, 0x0b, 0xf3, 0x14, 0xdc, 0xfe, 0xf4, 0x20, 0xfc,
  0xf1, 0x1d, 0xfd, 0x07, 0xf1, 0xe7, 0x17, 0xe5, 0x07, 0xf3, 0xfa, 0xf4,
  0xb7, 0x08, 0xf4, 0xf3, 0x10, 0x1e, 0xda, 0x36, 0xf6, 0xbb, 0x0c, 0x23,
  0x28, 0x1b, 0x22, 0xd7, 0x10, 0x01, 0x28, 0x19, 0x41, 0x11, 0xf2, 0x46,
  0x00, 0xb7, 0x2b, 0x1d, 0x1a, 0x16, 0x09, 0xc1, 0x2d, 0x09, 0x2c, 0x2d,
  0x0f, 0x0f, 0xe1, 0x25, 0x25, 0xa9, 0x2f, 0x08, 0x24, 0x06, 0x2f, 0xab,
  0x04, 0x12, 0x4b, 0x21, 0x60, 0x62, 0xe7, 0x38, 0x3c, 0x34, 0xbb, 0xd8,
  0x2e, 0x2b, 0x19, 0xef, 0xf1, 0x46, 0x12, 0x1e, 0x25, 0x2c, 0x01, 0x5e,
  0x10, 0xf8, 0xf4, 0x00, 0xe7, 0xff, 0x69, 0xa6, 0x9d, 0x50, 0x5d, 0xd1,
  0x4d, 0x4a, 0xbc, 0x2c, 0xeb, 0xd3, 0xc7, 0xa6, 0xb3, 0x2d, 0x5d, 0xd4,
  0x9f, 0x38, 0xfd, 0x0f, 0x5c, 0x27, 0xde, 0x1f, 0x34, 0x06, 0x00, 0xe9,
  0xfd, 0x3c, 0x1f, 0x0f, 0xd1, 0x58, 0x0f, 0xd1, 0x34, 0x41, 0xea, 0x44,
  0xe8, 0x19, 0xfe, 0xb5, 0x20, 0x3f, 0x2d, 0xf5, 0x9e, 0x61, 0x33, 0x13,
  0x45, 0x29, 0xd0, 0x35, 0x07, 0xfa, 0xfd, 0xc6, 0xd6, 0x17, 0x4a, 0x98,
  0xb1, 0x4b, 0x25, 0xed, 0x19, 0x53, 0xd2, 0x18, 0x2a, 0x27, 0xdf, 0x05,
  0x02, 0x37, 0x5c, 0xfa, 0x26, 0x37, 0x4c, 0x06, 0x43, 0x1b, 0xd9, 0x6a,
  0x2c, 0x2e, 0xca, 0xf9, 0x12, 0x2a, 0x1a, 0xaa, 0xa9, 0x76, 0x27, 0xd4,
  0x45, 0x13, 0xf4, 0x5e, 0xf5, 0xce, 0xf6, 0xcc, 0xbd, 0x2b, 0x0c, 0xd9,
  0x81, 0x72, 0x0c, 0x0e, 0x16, 0xff, 0xff, 0xff, 0x04, 0x00, 0x00, 0x00,
  0x90, 0x00, 0x00, 0x00, 0x2a, 0x98, 0xe4, 0x12, 0x9c, 0x1e, 0xb3, 0xac,
  0x81, 0x7c, 0x7c, 0x7f, 0x2f, 0xd1, 0xf9, 0xc9, 0xbb, 0xf8, 0x64, 0x7d,
  0x7f, 0x1e, 0x40, 0x52, 0x03, 0xe1, 0xd4, 0x8b, 0x9e, 0x82, 0x9a, 0xaa,
  0xb0, 0xad, 0x90, 0x81, 0x8e, 0x8a, 0xce, 0x14, 0x21, 0xe1, 0xc1, 0x81,
  0x99, 0xbd, 0x9c, 0xa4, 0x7a, 0xf6, 0x97, 0x2a, 0x7c, 0x7f, 0xb1, 0xac,
  0xbd, 0xfb, 0x0c, 0x35, 0xc0, 0xaf, 0x81, 0xf3, 0xad, 0x81, 0x38, 0x9d,
  0x8f, 0x55, 0xbf, 0x8b, 0xae, 0xa0, 0x81, 0xe0, 0xa2, 0x93, 0xce, 0x95,
  0x97, 0x81, 0xe9, 0x94, 0x07, 0x56, 0x2c, 0x0b, 0xbc, 0x13, 0x81, 0x0b,
  0x0a, 0x26, 0x3e, 0x91, 0x94, 0x98, 0x85, 0xf8, 0x53, 0x23, 0x47, 0xd1,
  0xc6, 0x13, 0x72, 0x7f, 0x42, 0xaf, 0x81, 0x31, 0xa6, 0xae, 0x79, 0xc8,
  0x89, 0x21, 0x7f, 0xe8, 0xed, 0xf3, 0xcc, 0x2b, 0xa7, 0x19, 0xe3, 0xbe,
  0xc6, 0xf4, 0xc2, 0xe0, 0x81, 0x94, 0xa0, 0xcb, 0xd7, 0x57, 0x3a, 0x4b,
  0xd6, 0xc5, 0x81, 0x82, 0xb2, 0xff, 0xff, 0xff, 0x04, 0x00, 0x00, 0x00,
  0x40, 0x00, 0x00, 0x00, 0xab, 0x04, 0x00, 0x00, 0x19, 0x00, 0x00, 0x00,
  0xd5, 0xfe, 0xff, 0xff, 0x54, 0xff, 0xff, 0xff, 0xf5, 0xff, 0xff, 0xff,
  0x8b, 0x04, 0x00, 0x00, 0xb1, 0x01, 0x00, 0x00, 0x1a, 0x06, 0x00, 0x00,
  0xd8, 0xfe, 0xff, 0xff, 0x16, 0x01, 0x00, 0x00, 0x0b, 0x05, 0x00, 0x00,
  0x2d, 0x03, 0x00, 0x00, 0x98, 0xfb, 0xff, 0xff, 0x42, 0x06, 0x00, 0x00,
  0xb5, 0x00, 0x00, 0x00, 0x4c, 0x06, 0x00, 0x00, 0x00, 0x00, 0x06, 0x00,
  0x08, 0x00, 0x04, 0x00, 0x06, 0x00, 0x00, 0x00, 0x04, 0x00, 0x00, 0x00,
  0x40, 0x00, 0x00, 0x00, 0x8b, 0x0b, 0x00, 0x00, 0x57, 0x06, 0x00, 0x00,
  0x35, 0xfe, 0xff, 0xff, 0x2f, 0x03, 0x00, 0x00, 0xff, 0xfd, 0xff, 0xff,
  0x00, 0x00, 0x00, 0x00, 0xc2, 0xfc, 0xff, 0xff, 0x8e, 0xfd, 0xff, 0xff,
  0x9b, 0xfc, 0xff, 0xff, 0x19, 0x06, 0x00, 0x00, 0x1f, 0x07, 0x00, 0x00,
  0xb6, 0xfc, 0xff, 0xff, 0xcd, 0xfc, 0xff, 0xff, 0x31, 0x0d, 0x00, 0x00,
  0x44, 0x05, 0x00, 0x00, 0x93, 0xfe, 0xff, 0xff, 0x8c, 0xf6, 0xff, 0xff,
  0x90, 0xf6, 0xff, 0xff, 0x0f, 0x00, 0x00, 0x00, 0x4d, 0x4c, 0x49, 0x52,
  0x20, 0x43, 0x6f, 0x6e, 0x76, 0x65, 0x72, 0x74, 0x65, 0x64, 0x2e, 0x00,
  0x01, 0x00, 0x00, 0x00, 0x14, 0x00, 0x00, 0x00, 0x00, 0x00, 0x0e, 0x00,
  0x18, 0x00, 0x14, 0x00, 0x10, 0x00, 0x0c, 0x00, 0x08, 0x00, 0x04, 0x00,
  0x0e, 0x00, 0x00, 0x00, 0x14, 0x00, 0x00, 0x00, 0x1c, 0x00, 0x00, 0x00,
  0x20, 0x02, 0x00, 0x00, 0x24, 0x02, 0x00, 0x00, 0x28, 0x02, 0x00, 0x00,
  0x04, 0x00, 0x00, 0x00, 0x6d, 0x61, 0x69, 0x6e, 0x00, 0x00, 0x00, 0x00,
  0x08, 0x00, 0x00, 0x00, 0xe4, 0x01, 0x00, 0x00, 0x8c, 0x01, 0x00, 0x00,
  0x3c, 0x01, 0x00, 0x00, 0xe8, 0x00, 0x00, 0x00, 0xa4, 0x00, 0x00, 0x00,
  0x60, 0x00, 0x00, 0x00, 0x28, 0x00, 0x00, 0x00, 0x04, 0x00, 0x00, 0x00,
  0x46, 0xfe, 0xff, 0xff, 0x0c, 0x00, 0x00, 0x00, 0x10, 0x00, 0x00, 0x00,
  0x05, 0x00, 0x00, 0x00, 0x01, 0x00, 0x00, 0x00, 0x11, 0x00, 0x00, 0x00,
  0x01, 0x00, 0x00, 0x00, 0x0f, 0x00, 0x00, 0x00, 0x5a, 0xff, 0xff, 0xff,
  0x14, 0x00, 0x00, 0x00, 0x00, 0x00, 0x00, 0x08, 0x10, 0x00, 0x00, 0x00,
  0x14, 0x00, 0x00, 0x00, 0x03, 0x00, 0x00, 0x00, 0x40, 0xf7, 0xff, 0xff,
  0x01, 0x00, 0x00, 0x00, 0x0f, 0x00, 0x00, 0x00, 0x03, 0x00, 0x00, 0x00,
  0x0e, 0x00, 0x00, 0x00, 0x09, 0x00, 0x00, 0x00, 0x05, 0x00, 0x00, 0x00,
  0x8e, 0xff, 0xff, 0xff, 0x1c, 0x00, 0x00, 0x00, 0x00, 0x00, 0x00, 0x08,
  0x1c, 0x00, 0x00, 0x00, 0x20, 0x00, 0x00, 0x00, 0x03, 0x00, 0x00, 0x00,
  0x00, 0x00, 0x06, 0x00, 0x08, 0x00, 0x07, 0x00, 0x06, 0x00, 0x00, 0x00,
  0x00, 0x00, 0x00, 0x01, 0x01, 0x00, 0x00, 0x00, 0x0e, 0x00, 0x00, 0x00,
  0x03, 0x00, 0x00, 0x00, 0x0d, 0x00, 0x00, 0x00, 0x08, 0x00, 0x00, 0x00,
  0x06, 0x00, 0x00, 0x00, 0xce, 0xff, 0xff, 0xff, 0x14, 0x00, 0x00, 0x00,
  0x00, 0x00, 0x00, 0x1b, 0x10, 0x00, 0x00, 0x00, 0x14, 0x00, 0x00, 0x00,
  0x02, 0x00, 0x00, 0x00, 0xb4, 0xf7, 0xff, 0xff, 0x01, 0x00, 0x00, 0x00,
  0x0d, 0x00, 0x00, 0x00, 0x02, 0x00, 0x00, 0x00, 0x0c, 0x00, 0x00, 0x00,
  0x07, 0x00, 0x00, 0x00, 0x00, 0x00, 0x0e, 0x00, 0x1a, 0x00, 0x14, 0x00,
  0x10, 0x00, 0x0c, 0x00, 0x0b, 0x00, 0x04, 0x00, 0x0e, 0x00, 0x00, 0x00,
  0x24, 0x00, 0x00, 0x00, 0x00, 0x00, 0x00, 0x05, 0x34, 0x00, 0x00, 0x00,
  0x38, 0x00, 0x00, 0x00, 0x01, 0x00, 0x00, 0x00, 0x00, 0x00, 0x0e, 0x00,
  0x18, 0x00, 0x17, 0x00, 0x10, 0x00, 0x0c, 0x00, 0x08, 0x00, 0x04, 0x00,
  0x0e, 0x00, 0x00, 0x00, 0x02, 0x00, 0x00, 0x00, 0x02, 0x00, 0x00, 0x00,
  0x02, 0x00, 0x00, 0x00, 0x02, 0x00, 0x00, 0x00, 0x00, 0x00, 0x00, 0x01,
  0x01, 0x00, 0x00, 0x00, 0x0c, 0x00, 0x00, 0x00, 0x01, 0x00, 0x00, 0x00,
  0x0b, 0x00, 0x00, 0x00, 0xc2, 0xff, 0xff, 0xff, 0x10, 0x00, 0x00, 0x00,
  0x00, 0x00, 0x00, 0x01, 0x18, 0x00, 0x00, 0x00, 0x1c, 0x00, 0x00, 0x00,
  0xb4, 0xff, 0xff, 0xff, 0x00, 0x00, 0x00, 0x01, 0x01, 0x00, 0x00, 0x00,
  0x01, 0x00, 0x00, 0x00, 0x01, 0x00, 0x00, 0x00, 0x0b, 0x00, 0x00, 0x00,
  0x03, 0x00, 0x00, 0x00, 0x0a, 0x00, 0x00, 0x00, 0x04, 0x00, 0x00, 0x00,
  0x02, 0x00, 0x00, 0x00, 0x00, 0x00, 0x0e, 0x00, 0x14, 0x00, 0x00, 0x00,
  0x10, 0x00, 0x0c, 0x00, 0x0b, 0x00, 0x04, 0x00, 0x0e, 0x00, 0x00, 0x00,
  0x1c, 0x00, 0x00, 0x00, 0x00, 0x00, 0x00, 0x01, 0x24, 0x00, 0x00, 0x00,
  0x28, 0x00, 0x00, 0x00, 0x0c, 0x00, 0x10, 0x00, 0x00, 0x00, 0x0c, 0x00,
  0x08, 0x00, 0x07, 0x00, 0x0c, 0x00, 0x00, 0x00, 0x00, 0x00, 0x00, 0x01,
  0x01, 0x00, 0x00, 0x00, 0x01, 0x00, 0x00, 0x00, 0x01, 0x00, 0x00, 0x00,
  0x0a, 0x00, 0x00, 0x00, 0x03, 0x00, 0x00, 0x00, 0x00, 0x00, 0x00, 0x00,
  0x03, 0x00, 0x00, 0x00, 0x01, 0x00, 0x00, 0x00, 0x00, 0x00, 0x0a, 0x00,
  0x10, 0x00, 0x0c, 0x00, 0x08, 0x00, 0x04, 0x00, 0x0a, 0x00, 0x00, 0x00,
  0x0c, 0x00, 0x00, 0x00, 0x10, 0x00, 0x00, 0x00, 0x04, 0x00, 0x00, 0x00,
  0x01, 0x00, 0x00, 0x00, 0x00, 0x00, 0x00, 0x00, 0x01, 0x00, 0x00, 0x00,
  0x10, 0x00, 0x00, 0x00, 0x01, 0x00, 0x00, 0x00, 0x11, 0x00, 0x00, 0x00,
  0x01, 0x00, 0x00, 0x00, 0x10, 0x00, 0x00, 0x00, 0x12, 0x00, 0x00, 0x00,
  0x48, 0x0e, 0x00, 0x00, 0xf4, 0x0c, 0x00, 0x00, 0xac, 0x0b, 0x00, 0x00,
  0xf0, 0x09, 0x00, 0x00, 0x34, 0x08, 0x00, 0x00, 0xb8, 0x07, 0x00, 0x00,
  0x3c, 0x07, 0x00, 0x00, 0xc8, 0x06, 0x00, 0x00, 0x44, 0x06, 0x00, 0x00,
  0xc0, 0x05, 0x00, 0x00, 0x94, 0x04, 0x00, 0x00, 0x88, 0x03, 0x00, 0x00,
  0xd4, 0x02, 0x00, 0x00, 0x28, 0x02, 0x00, 0x00, 0x5c, 0x01, 0x00, 0x00,
  0xc0, 0x00, 0x00, 0x00, 0x64, 0x00, 0x00, 0x00, 0x04, 0x00, 0x00, 0x00,
  0xb8, 0xff, 0xff, 0xff, 0x0c, 0x00, 0x00, 0x00, 0x14, 0x00, 0x00, 0x00,
  0x30, 0x00, 0x00, 0x00, 0x02, 0x00, 0x00, 0x00, 0xff, 0xff, 0xff, 0xff,
  0x04, 0x00, 0x00, 0x00, 0x19, 0x00, 0x00, 0x00, 0x53, 0x74, 0x61, 0x74,
  0x65, 0x66, 0x75, 0x6c, 0x50, 0x61, 0x72, 0x74, 0x69, 0x74, 0x69, 0x6f,
  0x6e, 0x65, 0x64, 0x43, 0x61, 0x6c, 0x6c, 0x3a, 0x30, 0x00, 0x00, 0x00,
  0x02, 0x00, 0x00, 0x00, 0x01, 0x00, 0x00, 0x00, 0x04, 0x00, 0x00, 0x00,
  0x14, 0x00, 0x10, 0x00, 0x0c, 0x00, 0x00, 0x00, 0x00, 0x00, 0x08, 0x00,
  0x00, 0x00, 0x00, 0x00, 0x00, 0x00, 0x04, 0x00, 0x14, 0x00, 0x00, 0x00,
  0x0c, 0x00, 0x00, 0x00, 0x1c, 0x00, 0x00, 0x00, 0x38, 0x00, 0x00, 0x00,
  0x04, 0x00, 0x00, 0x00, 0xff, 0xff, 0xff, 0xff, 0xfa, 0x00, 0x00, 0x00,
  0x03, 0x00, 0x00, 0x00, 0x01, 0x00, 0x00, 0x00, 0x19, 0x00, 0x00, 0x00,
  0x73, 0x65, 0x72, 0x76, 0x69, 0x6e, 0x67, 0x5f, 0x64, 0x65, 0x66, 0x61,
  0x75, 0x6c, 0x74, 0x5f, 0x69, 0x6e, 0x70, 0x75, 0x74, 0x5f, 0x32, 0x3a,
  0x30, 0x00, 0x00, 0x00, 0x04, 0x00, 0x00, 0x00, 0x01, 0x00, 0x00, 0x00,
  0xfa, 0x00, 0x00, 0x00, 0x03, 0x00, 0x00, 0x00, 0x01, 0x00, 0x00, 0x00,
  0xca, 0xf2, 0xff, 0xff, 0x00, 0x00, 0x00, 0x01, 0x18, 0x00, 0x00, 0x00,
  0x20, 0x00, 0x00, 0x00, 0x58, 0x00, 0x00, 0x00, 0x10, 0x00, 0x00, 0x00,
  0x00, 0x00, 0x00, 0x09, 0x70, 0x00, 0x00, 0x00, 0x02, 0x00, 0x00, 0x00,
  0xff, 0xff, 0xff, 0xff, 0x04, 0x00, 0x00, 0x00, 0xac, 0xf2, 0xff, 0xff,
  0x10, 0x00, 0x00, 0x00, 0x1c, 0x00, 0x00, 0x00, 0x20, 0x00, 0x00, 0x00,
  0x24, 0x00, 0x00, 0x00, 0x01, 0x00, 0x00, 0x00, 0x49, 0x00, 0x00, 0x00,
  0x00, 0x00, 0x00, 0x00, 0x00, 0x00, 0x00, 0x00, 0x01, 0x00, 0x00, 0x00,
  0x28, 0x9b, 0x6a, 0x3e, 0x01, 0x00, 0x00, 0x00, 0x64, 0xb1, 0x46, 0x41,
  0x01, 0x00, 0x00, 0x00, 0x34, 0x04, 0x38, 0xc2, 0x1e, 0x00, 0x00, 0x00,
  0x53, 0x74, 0x61, 0x74, 0x65, 0x66, 0x75, 0x6c, 0x50, 0x61, 0x72, 0x74,
  0x69, 0x74, 0x69, 0x6f, 0x6e, 0x65, 0x64, 0x43, 0x61, 0x6c, 0x6c, 0x3a,
  0x30, 0x5f, 0x69, 0x6e, 0x74, 0x38, 0x00, 0x00, 0x02, 0x00, 0x00, 0x00,
  0x01, 0x00, 0x00, 0x00, 0x04, 0x00, 0x00, 0x00, 0x62, 0xf3, 0xff, 0xff,
  0x00, 0x00, 0x00, 0x01, 0x18, 0x00, 0x00, 0x00, 0x20, 0x00, 0x00, 0x00,
  0x54, 0x00, 0x00, 0x00, 0x0f, 0x00, 0x00, 0x00, 0x00, 0x00, 0x00, 0x09,
  0xa0, 0x00, 0x00, 0x00, 0x02, 0x00, 0x00, 0x00, 0xff, 0xff, 0xff, 0xff,
  0x10, 0x00, 0x00, 0x00, 0x44, 0xf3, 0xff, 0xff, 0x10, 0x00, 0x00, 0x00,
  0x18, 0x00, 0x00, 0x00, 0x1c, 0x00, 0x00, 0x00, 0x20, 0x00, 0x00, 0x00,
  0x01, 0x00, 0x00, 0x00, 0x80, 0xff, 0xff, 0xff, 0xff, 0xff, 0xff, 0xff,
  0x01, 0x00, 0x00, 0x00, 0x27, 0xdf, 0x04, 0x3e, 0x01, 0x00, 0x00, 0x00,
  0x48, 0x5a, 0x04, 0x42, 0x01, 0x00, 0x00, 0x00, 0x00, 0x00, 0x00, 0x00,
  0x52, 0x00, 0x00, 0x00, 0x73, 0x65, 0x71, 0x75, 0x65, 0x6e, 0x74, 0x69,
  0x61, 0x6c, 0x5f, 0x31, 0x2f, 0x64, 0x65, 0x6e, 0x73, 0x65, 0x5f, 0x32,
  0x2f, 0x4d, 0x61, 0x74, 0x4d, 0x75, 0x6c, 0x3b, 0x73, 0x65, 0x71, 0x75,
  0x65, 0x6e, 0x74, 0x69, 0x61, 0x6c, 0x5f, 0x31, 0x2f, 0x64, 0x65, 0x6e,
  0x73, 0x65, 0x5f, 0x32, 0x2f, 0x52, 0x65, 0x6c, 0x75, 0x3b, 0x73, 0x65,
  0x71, 0x75, 0x65, 0x6e, 0x74, 0x69, 0x61, 0x6c, 0x5f, 0x31, 0x2f, 0x64,
  0x65, 0x6e, 0x73, 0x65, 0x5f, 0x32, 0x2f, 0x42, 0x69, 0x61, 0x73, 0x41,
  0x64, 0x64, 0x00, 0x00, 0x02, 0x00, 0x00, 0x00, 0x01, 0x00, 0x00, 0x00,
  0x10, 0x00, 0x00, 0x00, 0x2a, 0xf4, 0xff, 0xff, 0x00, 0x00, 0x00, 0x01,
  0x18, 0x00, 0x00, 0x00, 0x20, 0x00, 0x00, 0x00, 0x58, 0x00, 0x00, 0x00,
  0x0e, 0x00, 0x00, 0x00, 0x00, 0x00, 0x00, 0x09, 0x80, 0x00, 0x00, 0x00,
  0x02, 0x00, 0x00, 0x00, 0xff, 0xff, 0xff, 0xff, 0x10, 0x00, 0x00, 0x00,
  0x0c, 0xf4, 0xff, 0xff, 0x10, 0x00, 0x00, 0x00, 0x1c, 0x00, 0x00, 0x00,
  0x20, 0x00, 0x00, 0x00, 0x24, 0x00, 0x00, 0x00, 0x01, 0x00, 0x00, 0x00,
  0x80, 0xff, 0xff, 0xff, 0xff, 0xff, 0xff, 0xff, 0x00, 0x00, 0x00, 0x00,
  0x01, 0x00, 0x00, 0x00, 0x45, 0xa4, 0x94, 0x3d, 0x01, 0x00, 0x00, 0x00,
  0xa1, 0x0f, 0x94, 0x41, 0x01, 0x00, 0x00, 0x00, 0x00, 0x00, 0x00, 0x00,
  0x2c, 0x00, 0x00, 0x00, 0x73, 0x65, 0x71, 0x75, 0x65, 0x6e, 0x74, 0x69,
  0x61, 0x6c, 0x5f, 0x31, 0x2f, 0x67, 0x6c, 0x6f, 0x62, 0x61, 0x6c, 0x5f,
  0x61, 0x76, 0x65, 0x72, 0x61, 0x67, 0x65, 0x5f, 0x70, 0x6f, 0x6f, 0x6c,
  0x69, 0x6e, 0x67, 0x32, 0x64, 0x5f, 0x31, 0x2f, 0x4d, 0x65, 0x61, 0x6e,
  0x00, 0x00, 0x00, 0x00, 0x02, 0x00, 0x00, 0x00, 0x01, 0x00, 0x00, 0x00,
  0x10, 0x00, 0x00, 0x00, 0xd2, 0xf4, 0xff, 0xff, 0x00, 0x00, 0x00, 0x01,
  0x18, 0x00, 0x00, 0x00, 0x28, 0x00, 0x00, 0x00, 0x5c, 0x00, 0x00, 0x00,
  0x0d, 0x00, 0x00, 0x00, 0x00, 0x00, 0x00, 0x09, 0x80, 0x00, 0x00, 0x00,
  0x04, 0x00, 0x00, 0x00, 0xff, 0xff, 0xff, 0xff, 0x7d, 0x00, 0x00, 0x00,
  0x01, 0x00, 0x00, 0x00, 0x10, 0x00, 0x00, 0x00, 0xbc, 0xf4, 0xff, 0xff,
  0x10, 0x00, 0x00, 0x00, 0x18, 0x00, 0x00, 0x00, 0x1c, 0x00, 0x00, 0x00,
  0x20, 0x00, 0x00, 0x00, 0x01, 0x00, 0x00, 0x00, 0x80, 0xff, 0xff, 0xff,
  0xff, 0xff, 0xff, 0xff, 0x01, 0x00, 0x00, 0x00, 0x84, 0xca, 0x94, 0x3e,
  0x01, 0x00, 0x00, 0x00, 0xb9, 0x35, 0x94, 0x42, 0x01, 0x00, 0x00, 0x00,
  0x00, 0x00, 0x00, 0x00, 0x28, 0x00, 0x00, 0x00, 0x73, 0x65, 0x71, 0x75,
  0x65, 0x6e, 0x74, 0x69, 0x61, 0x6c, 0x5f, 0x31, 0x2f, 0x61, 0x76, 0x65,
  0x72, 0x61, 0x67, 0x65, 0x5f, 0x70, 0x6f, 0x6f, 0x6c, 0x69, 0x6e, 0x67,
  0x32, 0x64, 0x5f, 0x31, 0x2f, 0x41, 0x76, 0x67, 0x50, 0x6f, 0x6f, 0x6c,
  0x00, 0x00, 0x00, 0x00, 0x04, 0x00, 0x00, 0x00, 0x01, 0x00, 0x00, 0x00,
  0x7d, 0x00, 0x00, 0x00, 0x01, 0x00, 0x00, 0x00, 0x10, 0x00, 0x00, 0x00,
  0x82, 0xf5, 0xff, 0xff, 0x00, 0x00, 0x00, 0x01, 0x18, 0x00, 0x00, 0x00,
  0x28, 0x00, 0x00, 0x00, 0x5c, 0x00, 0x00, 0x00, 0x0c, 0x00, 0x00, 0x00,
  0x00, 0x00, 0x00, 0x09, 0xd8, 0x00, 0x00, 0x00, 0x04, 0x00, 0x00, 0x00,
  0xff, 0xff, 0xff, 0xff, 0xfa, 0x00, 0x00, 0x00, 0x03, 0x00, 0x00, 0x00,
  0x10, 0x00, 0x00, 0x00, 0x6c, 0xf5, 0xff, 0xff, 0x10, 0x00, 0x00, 0x00,
  0x18, 0x00, 0x00, 0x00, 0x1c, 0x00, 0x00, 0x00, 0x20, 0x00, 0x00, 0x00,
  0x01, 0x00, 0x00, 0x00, 0x80, 0xff, 0xff, 0xff, 0xff, 0xff, 0xff, 0xff,
  0x01, 0x00, 0x00, 0x00, 0x84, 0xca, 0x94, 0x3e, 0x01, 0x00, 0x00, 0x00,
  0xb9, 0x35, 0x94, 0x42, 0x01, 0x00, 0x00, 0x00, 0x00, 0x00, 0x00, 0x00,
  0x82, 0x00, 0x00, 0x00, 0x73, 0x65, 0x71, 0x75, 0x65, 0x6e, 0x74, 0x69,
  0x61, 0x6c, 0x5f, 0x31, 0x2f, 0x63, 0x6f, 0x6e, 0x76, 0x32, 0x64, 0x5f,
  0x33, 0x2f, 0x52, 0x65, 0x6c, 0x75, 0x3b, 0x73, 0x65, 0x71, 0x75, 0x65,
  0x6e, 0x74, 0x69, 0x61, 0x6c, 0x5f, 0x31, 0x2f, 0x63, 0x6f, 0x6e, 0x76,
  0x32, 0x64, 0x5f, 0x33, 0x2f, 0x42, 0x69, 0x61, 0x73, 0x41, 0x64, 0x64,
  0x3b, 0x73, 0x65, 0x71, 0x75, 0x65, 0x6e, 0x74, 0x69, 0x61, 0x6c, 0x5f,
  0x31, 0x2f, 0x63, 0x6f, 0x6e, 0x76, 0x32, 0x64, 0x5f, 0x33, 0x2f, 0x43,
  0x6f, 0x6e, 0x76, 0x32, 0x44, 0x3b, 0x73, 0x65, 0x71, 0x75, 0x65, 0x6e,
  0x74, 0x69, 0x61, 0x6c, 0x5f, 0x31, 0x2f, 0x63, 0x6f, 0x6e, 0x76, 0x32,
  0x64, 0x5f, 0x33, 0x2f, 0x42, 0x69, 0x61, 0x73, 0x41, 0x64, 0x64, 0x2f,
  0x52, 0x65, 0x61, 0x64, 0x56, 0x61, 0x72, 0x69, 0x61, 0x62, 0x6c, 0x65,
  0x4f, 0x70, 0x00, 0x00, 0x04, 0x00, 0x00, 0x00, 0x01, 0x00, 0x00, 0x00,
  0xfa, 0x00, 0x00, 0x00, 0x03, 0x00, 0x00, 0x00, 0x10, 0x00, 0x00, 0x00,
  0x8a, 0xf6, 0xff, 0xff, 0x00, 0x00, 0x00, 0x01, 0x18, 0x00, 0x00, 0x00,
  0x28, 0x00, 0x00, 0x00, 0x60, 0x00, 0x00, 0x00, 0x0b, 0x00, 0x00, 0x00,
  0x00, 0x00, 0x00, 0x09, 0xf8, 0x00, 0x00, 0x00, 0x04, 0x00, 0x00, 0x00,
  0xff, 0xff, 0xff, 0xff, 0xfa, 0x00, 0x00, 0x00, 0x03, 0x00, 0x00, 0x00,
  0x10, 0x00, 0x00, 0x00, 0x74, 0xf6, 0xff, 0xff, 0x10, 0x00, 0x00, 0x00,
  0x1c, 0x00, 0x00, 0x00, 0x20, 0x00, 0x00, 0x00, 0x24, 0x00, 0x00, 0x00,
  0x01, 0x00, 0x00, 0x00, 0x80, 0xff, 0xff, 0xff, 0xff, 0xff, 0xff, 0xff,
  0x00, 0x00, 0x00, 0x00, 0x01, 0x00, 0x00, 0x00, 0x2e, 0xde, 0x61, 0x3d,
  0x01, 0x00, 0x00, 0x00, 0x50, 0xfc, 0x60, 0x41, 0x01, 0x00, 0x00, 0x00,
  0x00, 0x00, 0x00, 0x00, 0x9f, 0x00, 0x00, 0x00, 0x73, 0x65, 0x71, 0x75,
  0x65, 0x6e, 0x74, 0x69, 0x61, 0x6c, 0x5f, 0x31, 0x2f, 0x63, 0x6f, 0x6e,
  0x76, 0x32, 0x64, 0x5f, 0x32, 0x2f, 0x52, 0x65, 0x6c, 0x75, 0x3b, 0x73,
  0x65, 0x71, 0x75, 0x65, 0x6e, 0x74, 0x69, 0x61, 0x6c, 0x5f, 0x31, 0x2f,
  0x63, 0x6f, 0x6e, 0x76, 0x32, 0x64, 0x5f, 0x32, 0x2f, 0x42, 0x69, 0x61,
  0x73, 0x41, 0x64, 0x64, 0x3b, 0x73, 0x65, 0x71, 0x75, 0x65, 0x6e, 0x74,
  0x69, 0x61, 0x6c, 0x5f, 0x31, 0x2f, 0x63, 0x6f, 0x6e, 0x76, 0x32, 0x64,
  0x5f, 0x33, 0x2f, 0x43, 0x6f, 0x6e, 0x76, 0x32, 0x44, 0x3b, 0x73, 0x65,
  0x71, 0x75, 0x65, 0x6e, 0x74, 0x69, 0x61, 0x6c, 0x5f, 0x31, 0x2f, 0x63,
  0x6f, 0x6e, 0x76, 0x32, 0x64, 0x5f, 0x32, 0x2f, 0x43, 0x6f, 0x6e, 0x76,
  0x32, 0x44, 0x3b, 0x73, 0x65, 0x71, 0x75, 0x65, 0x6e, 0x74, 0x69, 0x61,
  0x6c, 0x5f, 0x31, 0x2f, 0x63, 0x6f, 0x6e, 0x76, 0x32, 0x64, 0x5f, 0x32,
  0x2f, 0x42, 0x69, 0x61, 0x73, 0x41, 0x64, 0x64, 0x2f, 0x52, 0x65, 0x61,
  0x64, 0x56, 0x61, 0x72, 0x69, 0x61, 0x62, 0x6c, 0x65, 0x4f, 0x70, 0x00,
  0x04, 0x00, 0x00, 0x00, 0x01, 0x00, 0x00, 0x00, 0xfa, 0x00, 0x00, 0x00,
  0x03, 0x00, 0x00, 0x00, 0x10, 0x00, 0x00, 0x00, 0x02, 0xf9, 0xff, 0xff,
  0x00, 0x00, 0x00, 0x01, 0x14, 0x00, 0x00, 0x00, 0x48, 0x00, 0x00, 0x00,
  0x0a, 0x00, 0x00, 0x00, 0x00, 0x00, 0x00, 0x09, 0x5c, 0x00, 0x00, 0x00,
  0x84, 0xf7, 0xff, 0xff, 0x10, 0x00, 0x00, 0x00, 0x18, 0x00, 0x00, 0x00,
  0x1c, 0x00, 0x00, 0x00, 0x20, 0x00, 0x00, 0x00, 0x01, 0x00, 0x00, 0x00,
  0x00, 0x00, 0x00, 0x00, 0x00, 0x00, 0x00, 0x00, 0x01, 0x00, 0x00, 0x00,
  0x5e, 0x0c, 0x2f, 0x3c, 0x01, 0x00, 0x00, 0x00, 0xae, 0x5e, 0x51, 0x3f,
  0x01, 0x00, 0x00, 0x00, 0x45, 0xae, 0xad, 0xbf, 0x1b, 0x00, 0x00, 0x00,
  0x73, 0x65, 0x71, 0x75, 0x65, 0x6e, 0x74, 0x69, 0x61, 0x6c, 0x5f, 0x31,
  0x2f, 0x64, 0x65, 0x6e, 0x73, 0x65, 0x5f, 0x33, 0x2f, 0x4d, 0x61, 0x74,
  0x4d, 0x75, 0x6c, 0x00, 0x02, 0x00, 0x00, 0x00, 0x04, 0x00, 0x00, 0x00,
  0x10, 0x00, 0x00, 0x00, 0x82, 0xf9, 0xff, 0xff, 0x00, 0x00, 0x00, 0x01,
  0x14, 0x00, 0x00, 0x00, 0x48, 0x00, 0x00, 0x00, 0x09, 0x00, 0x00, 0x00,
  0x00, 0x00, 0x00, 0x09, 0x5c, 0x00, 0x00, 0x00, 0x04, 0xf8, 0xff, 0xff,
  0x10, 0x00, 0x00, 0x00, 0x18, 0x00, 0x00, 0x00, 0x1c, 0x00, 0x00, 0x00,
  0x20, 0x00, 0x00, 0x00, 0x01, 0x00, 0x00, 0x00, 0x00, 0x00, 0x00, 0x00,
  0x00, 0x00, 0x00, 0x00, 0x01, 0x00, 0x00, 0x00, 0x61, 0x79, 0x19, 0x3c,
  0x01, 0x00, 0x00, 0x00, 0x13, 0x2c, 0x70, 0x3f, 0x01, 0x00, 0x00, 0x00,
  0x6e, 0x46, 0x98, 0xbf, 0x1b, 0x00, 0x00, 0x00, 0x73, 0x65, 0x71, 0x75,
  0x65, 0x6e, 0x74, 0x69, 0x61, 0x6c, 0x5f, 0x31, 0x2f, 0x64, 0x65, 0x6e,
  0x73, 0x65, 0x5f, 0x32, 0x2f, 0x4d, 0x61, 0x74, 0x4d, 0x75, 0x6c, 0x00,
  0x02, 0x00, 0x00, 0x00, 0x10, 0x00, 0x00, 0x00, 0x10, 0x00, 0x00, 0x00,
  0x02, 0xfa, 0xff, 0xff, 0x00, 0x00, 0x00, 0x01, 0x18, 0x00, 0x00, 0x00,
  0x18, 0x00, 0x00, 0x00, 0x08, 0x00, 0x00, 0x00, 0x00, 0x00, 0x00, 0x02,
  0x50, 0x00, 0x00, 0x00, 0x04, 0x00, 0x04, 0x00, 0x04, 0x00, 0x00, 0x00,
  0x3e, 0x00, 0x00, 0x00, 0x73, 0x65, 0x71, 0x75, 0x65, 0x6e, 0x74, 0x69,
  0x61, 0x6c, 0x5f, 0x31, 0x2f, 0x67, 0x6c, 0x6f, 0x62, 0x61, 0x6c, 0x5f,
  0x61, 0x76, 0x65, 0x72, 0x61, 0x67, 0x65, 0x5f, 0x70, 0x6f, 0x6f, 0x6c,
  0x69, 0x6e, 0x67, 0x32, 0x64, 0x5f, 0x31, 0x2f, 0x4d, 0x65, 0x61, 0x6e,
  0x2f, 0x72, 0x65, 0x64, 0x75, 0x63, 0x74, 0x69, 0x6f, 0x6e, 0x5f, 0x69,
  0x6e, 0x64, 0x69, 0x63, 0x65, 0x73, 0x00, 0x00, 0x01, 0x00, 0x00, 0x00,
  0x02, 0x00, 0x00, 0x00, 0x72, 0xfa, 0xff, 0xff, 0x00, 0x00, 0x00, 0x01,
  0x14, 0x00, 0x00, 0x00, 0x34, 0x00, 0x00, 0x00, 0x07, 0x00, 0x00, 0x00,
  0x00, 0x00, 0x00, 0x02, 0x58, 0x00, 0x00, 0x00, 0x5c, 0xfa, 0xff, 0xff,
  0x08, 0x00, 0x00, 0x00, 0x14, 0x00, 0x00, 0x00, 0x01, 0x00, 0x00, 0x00,
  0x00, 0x00, 0x00, 0x00, 0x00, 0x00, 0x00, 0x00, 0x00, 0x00, 0x00, 0x00,
  0x01, 0x00, 0x00, 0x00, 0x4e, 0x39, 0x32, 0x3a, 0x2b, 0x00, 0x00, 0x00,
  0x73, 0x65, 0x71, 0x75, 0x65, 0x6e, 0x74, 0x69, 0x61, 0x6c, 0x5f, 0x31,
  0x2f, 0x64, 0x65, 0x6e, 0x73, 0x65, 0x5f, 0x32, 0x2f, 0x42, 0x69, 0x61,
  0x73, 0x41, 0x64, 0x64, 0x2f, 0x52, 0x65, 0x61, 0x64, 0x56, 0x61, 0x72,
  0x69, 0x61, 0x62, 0x6c, 0x65, 0x4f, 0x70, 0x00, 0x01, 0x00, 0x00, 0x00,
  0x10, 0x00, 0x00, 0x00, 0xea, 0xfa, 0xff, 0xff, 0x00, 0x00, 0x00, 0x01,
  0x14, 0x00, 0x00, 0x00, 0x34, 0x00, 0x00, 0x00, 0x06, 0x00, 0x00, 0x00,
  0x00, 0x00, 0x00, 0x02, 0x58, 0x00, 0x00, 0x00, 0xd4, 0xfa, 0xff, 0xff,
  0x08, 0x00, 0x00, 0x00, 0x14, 0x00, 0x00, 0x00, 0x01, 0x00, 0x00, 0x00,
  0x00, 0x00, 0x00, 0x00, 0x00, 0x00, 0x00, 0x00, 0x00, 0x00, 0x00, 0x00,
  0x01, 0x00, 0x00, 0x00, 0xee, 0xb5, 0xb5, 0x3a, 0x2b, 0x00, 0x00, 0x00,
  0x73, 0x65, 0x71, 0x75, 0x65, 0x6e, 0x74, 0x69, 0x61, 0x6c, 0x5f, 0x31,
  0x2f, 0x64, 0x65, 0x6e, 0x73, 0x65, 0x5f, 0x33, 0x2f, 0x42, 0x69, 0x61,
  0x73, 0x41, 0x64, 0x64, 0x2f, 0x52, 0x65, 0x61, 0x64, 0x56, 0x61, 0x72,
  0x69, 0x61, 0x62, 0x6c, 0x65, 0x4f, 0x70, 0x00, 0x01, 0x00, 0x00, 0x00,
  0x04, 0x00, 0x00, 0x00, 0x62, 0xfb, 0xff, 0xff, 0x00, 0x00, 0x00, 0x01,
  0x14, 0x00, 0x00, 0x00, 0x74, 0x01, 0x00, 0x00, 0x05, 0x00, 0x00, 0x00,
  0x00, 0x00, 0x00, 0x09, 0x8c, 0x01, 0x00, 0x00, 0xe4, 0xf9, 0xff, 0xff,
  0x10, 0x00, 0x00, 0x00, 0x90, 0x00, 0x00, 0x00, 0xd0, 0x00, 0x00, 0x00,
  0x10, 0x01, 0x00, 0x00, 0x10, 0x00, 0x00, 0x00, 0x00, 0x00, 0x00, 0x00,
  0x00, 0x00, 0x00, 0x00, 0x00, 0x00, 0x00, 0x00, 0x00, 0x00, 0x00, 0x00,
  0x00, 0x00, 0x00, 0x00, 0x00, 0x00, 0x00, 0x00, 0x00, 0x00, 0x00, 0x00,
  0x00, 0x00, 0x00, 0x00, 0x00, 0x00, 0x00, 0x00, 0x00, 0x00, 0x00, 0x00,
  0x00, 0x00, 0x00, 0x00, 0x00, 0x00, 0x00, 0x00, 0x00, 0x00, 0x00, 0x00,
  0x00, 0x00, 0x00, 0x00, 0x00, 0x00, 0x00, 0x00, 0x00, 0x00, 0x00, 0x00,
  0x00, 0x00, 0x00, 0x00, 0x00, 0x00, 0x00, 0x00, 0x00, 0x00, 0x00, 0x00,
  0x00, 0x00, 0x00, 0x00, 0x00, 0x00, 0x00, 0x00, 0x00, 0x00, 0x00, 0x00,
  0x00, 0x00, 0x00, 0x00, 0x00, 0x00, 0x00, 0x00, 0x00, 0x00, 0x00, 0x00,
  0x00, 0x00, 0x00, 0x00, 0x00, 0x00, 0x00, 0x00, 0x00, 0x00, 0x00, 0x00,
  0x00, 0x00, 0x00, 0x00, 0x00, 0x00, 0x00, 0x00, 0x00, 0x00, 0x00, 0x00,
  0x00, 0x00, 0x00, 0x00, 0x10, 0x00, 0x00, 0x00, 0x89, 0xd4, 0x16, 0x3b,
  0x3d, 0xed, 0x4f, 0x3b, 0x7f, 0xd1, 0x76, 0x3b, 0x91, 0x7a, 0x83, 0x3b,
  0x8e, 0xd9, 0xbc, 0x3b, 0xef, 0x53, 0x2a, 0x3b, 0x1f, 0x44, 0x44, 0x3b,
  0x05, 0x46, 0x52, 0x3b, 0x35, 0x81, 0x47, 0x3b, 0xc2, 0x26, 0x36, 0x3b,
  0x68, 0x5b, 0x69, 0x3b, 0x2e, 0xfa, 0x2d, 0x3b, 0x4d, 0xdc, 0x60, 0x3b,
  0xc5, 0x23, 0x3f, 0x3b, 0x07, 0x8d, 0xc4, 0x3b, 0xb0, 0x9c, 0x3d, 0x3b,
  0x10, 0x00, 0x00, 0x00, 0xe0, 0xa6, 0x95, 0x3e, 0x41, 0xa2, 0xc0, 0x3e,
  0xdc, 0xe3, 0xf4, 0x3e, 0x9c, 0x73, 0x02, 0x3f, 0x92, 0xe0, 0x04, 0x3f,
  0x47, 0xff, 0xa8, 0x3e, 0x8a, 0x65, 0xad, 0x3e, 0x79, 0xa1, 0xd0, 0x3e,
  0x33, 0xf2, 0xc5, 0x3e, 0x74, 0xba, 0xb4, 0x3e, 0xf8, 0xe7, 0xae, 0x3e,
  0x3a, 0x9e, 0xac, 0x3e, 0x94, 0x1a, 0xdf, 0x3e, 0x7d, 0xa5, 0xbd, 0x3e,
  0xae, 0x6f, 0xe6, 0x3e, 0x9a, 0x12, 0xae, 0x3e, 0x10, 0x00, 0x00, 0x00,
  0x9b, 0x68, 0x77, 0xbe, 0x63, 0x4d, 0xce, 0xbe, 0xa5, 0x65, 0x73, 0xbe,
  0x6f, 0x87, 0xf3, 0xbe, 0xdb, 0x5f, 0x3b, 0xbf, 0x2f, 0x1c, 0x63, 0xbe,
  0x97, 0xbb, 0xc2, 0xbe, 0xcb, 0x0c, 0xc0, 0xbe, 0xf0, 0x30, 0xc3, 0xbe,
  0x11, 0xef, 0x35, 0xbe, 0xb1, 0x88, 0xe7, 0xbe, 0x5d, 0xaa, 0x99, 0xbe,
  0x93, 0x81, 0x82, 0xbe, 0x9b, 0xe6, 0xac, 0xbe, 0xed, 0x03, 0x43, 0xbf,
  0x77, 0x21, 0xbc, 0xbe, 0x1c, 0x00, 0x00, 0x00, 0x73, 0x65, 0x71, 0x75,
  0x65, 0x6e, 0x74, 0x69, 0x61, 0x6c, 0x5f, 0x31, 0x2f, 0x63, 0x6f, 0x6e,
  0x76, 0x32, 0x64, 0x5f, 0x33, 0x2f, 0x43, 0x6f, 0x6e, 0x76, 0x32, 0x44,
  0x00, 0x00, 0x00, 0x00, 0x04, 0x00, 0x00, 0x00, 0x10, 0x00, 0x00, 0x00,
  0x03, 0x00, 0x00, 0x00, 0x03, 0x00, 0x00, 0x00, 0x10, 0x00, 0x00, 0x00,
  0x1a, 0xfd, 0xff, 0xff, 0x00, 0x00, 0x00, 0x01, 0x14, 0x00, 0x00, 0x00,
  0x74, 0x01, 0x00, 0x00, 0x04, 0x00, 0x00, 0x00, 0x00, 0x00, 0x00, 0x09,
  0x8c, 0x01, 0x00, 0x00, 0x9c, 0xfb, 0xff, 0xff, 0x10, 0x00, 0x00, 0x00,
  0x90, 0x00, 0x00, 0x00, 0xd0, 0x00, 0x00, 0x00, 0x10, 0x01, 0x00, 0x00,
  0x10, 0x00, 0x00, 0x00, 0x00, 0x00, 0x00, 0x00, 0x00, 0x00, 0x00, 0x00,
  0x00, 0x00, 0x00, 0x00, 0x00, 0x00, 0x00, 0x00, 0x00, 0x00, 0x00, 0x00,
  0x00, 0x00, 0x00, 0x00, 0x00, 0x00, 0x00, 0x00, 0x00, 0x00, 0x00, 0x00,
  0x00, 0x00, 0x00, 0x00, 0x00, 0x00, 0x00, 0x00, 0x00, 0x00, 0x00, 0x00,
  0x00, 0x00, 0x00, 0x00, 0x00, 0x00, 0x00, 0x00, 0x00, 0x00, 0x00, 0x00,
  0x00, 0x00, 0x00, 0x00, 0x00, 0x00, 0x00, 0x00, 0x00, 0x00, 0x00, 0x00,
  0x00, 0x00, 0x00, 0x00, 0x00, 0x00, 0x00, 0x00, 0x00, 0x00, 0x00, 0x00,
  0x00, 0x00, 0x00, 0x00, 0x00, 0x00, 0x00, 0x00, 0x00, 0x00, 0x00, 0x00,
  0x00, 0x00, 0x00, 0x00, 0x00, 0x00, 0x00, 0x00, 0x00, 0x00, 0x00, 0x00,
  0x00, 0x00, 0x00, 0x00, 0x00, 0x00, 0x00, 0x00, 0x00, 0x00, 0x00, 0x00,
  0x00, 0x00, 0x00, 0x00, 0x00, 0x00, 0x00, 0x00, 0x00, 0x00, 0x00, 0x00,
  0x10, 0x00, 0x00, 0x00, 0xdc, 0x2b, 0x30, 0x3b, 0xe2, 0xef, 0x9b, 0x3b,
  0xa6, 0x31, 0xa0, 0x3b, 0x65, 0xf2, 0x8e, 0x3b, 0x3d, 0x0f, 0x95, 0x3b,
  0xe9, 0xa5, 0xab, 0x3b, 0xc3, 0x08, 0x96, 0x3b, 0x4f, 0xde, 0x84, 0x3b,
  0x9f, 0x88, 0x7a, 0x3b, 0x39, 0x9b, 0x98, 0x3b, 0xdc, 0x0f, 0x8a, 0x3b,
  0x65, 0x45, 0xaf, 0x3b, 0x05, 0x43, 0x86, 0x3b, 0x8f, 0x20, 0x11, 0x3b,
  0x06, 0x55, 0xfe, 0x3b, 0x35, 0x59, 0xb4, 0x3b, 0x10, 0x00, 0x00, 0x00,
  0xc8, 0xbc, 0xe8, 0x3d, 0x02, 0xb8, 0x1a, 0x3f, 0x43, 0xf1, 0x1e, 0x3f,
  0xd9, 0x42, 0xb2, 0xbe, 0x02, 0x05, 0x19, 0x3e, 0x9d, 0x4e, 0x2a, 0x3f,
  0x01, 0x35, 0x76, 0x3e, 0x1e, 0xf2, 0xaf, 0x3e, 0x0e, 0x36, 0xf9, 0xbd,
  0x87, 0x04, 0xcd, 0x3e, 0x0a, 0x2a, 0x85, 0x3e, 0xda, 0xe6, 0x2d, 0x3f,
  0x94, 0x3f, 0xfd, 0x3e, 0x4e, 0xfe, 0x8f, 0x3e, 0x32, 0xe1, 0xbe, 0xbd,
  0x6b, 0xc9, 0xf4, 0x3e, 0x10, 0x00, 0x00, 0x00, 0x84, 0xcb, 0xae, 0xbe,
  0x8a, 0x2e, 0xa7, 0xbe, 0xba, 0x11, 0x5c, 0xbe, 0x80, 0xd4, 0x0d, 0xbf,
  0x1f, 0xe5, 0x13, 0xbf, 0x5a, 0x64, 0x0d, 0xbf, 0xb1, 0xdc, 0x14, 0xbf,
  0x92, 0xd4, 0x03, 0xbf, 0x8e, 0x93, 0xf8, 0xbe, 0x03, 0x6a, 0x17, 0xbf,
  0xbc, 0xfb, 0x08, 0xbf, 0x2e, 0x8d, 0x9e, 0xbe, 0x7f, 0x36, 0x05, 0xbf,
  0x2c, 0x52, 0x4a, 0xbe, 0x5c, 0x58, 0x7c, 0xbf, 0x83, 0xf0, 0x32, 0xbf,
  0x1c, 0x00, 0x00, 0x00, 0x73, 0x65, 0x71, 0x75, 0x65, 0x6e, 0x74, 0x69,
  0x61, 0x6c, 0x5f, 0x31, 0x2f, 0x63, 0x6f, 0x6e, 0x76, 0x32, 0x64, 0x5f,
  0x32, 0x2f, 0x43, 0x6f, 0x6e, 0x76, 0x32, 0x44, 0x00, 0x00, 0x00, 0x00,
  0x04, 0x00, 0x00, 0x00, 0x10, 0x00, 0x00, 0x00, 0x03, 0x00, 0x00, 0x00,
  0x03, 0x00, 0x00, 0x00, 0x01, 0x00, 0x00, 0x00, 0xd2, 0xfe, 0xff, 0xff,
  0x00, 0x00, 0x00, 0x01, 0x14, 0x00, 0x00, 0x00, 0xe4, 0x00, 0x00, 0x00,
  0x03, 0x00, 0x00, 0x00, 0x00, 0x00, 0x00, 0x02, 0x0c, 0x01, 0x00, 0x00,
  0xbc, 0xfe, 0xff, 0xff, 0x08, 0x00, 0x00, 0x00, 0x88, 0x00, 0x00, 0x00,
  0x10, 0x00, 0x00, 0x00, 0x00, 0x00, 0x00, 0x00, 0x00, 0x00, 0x00, 0x00,
  0x00, 0x00, 0x00, 0x00, 0x00, 0x00, 0x00, 0x00, 0x00, 0x00, 0x00, 0x00,
  0x00, 0x00, 0x00, 0x00, 0x00, 0x00, 0x00, 0x00, 0x00, 0x00, 0x00, 0x00,
  0x00, 0x00, 0x00, 0x00, 0x00, 0x00, 0x00, 0x00, 0x00, 0x00, 0x00, 0x00,
  0x00, 0x00, 0x00, 0x00, 0x00, 0x00, 0x00, 0x00, 0x00, 0x00, 0x00, 0x00,
  0x00, 0x00, 0x00, 0x00, 0x00, 0x00, 0x00, 0x00, 0x00, 0x00, 0x00, 0x00,
  0x00, 0x00, 0x00, 0x00, 0x00, 0x00, 0x00, 0x00, 0x00, 0x00, 0x00, 0x00,
  0x00, 0x00, 0x00, 0x00, 0x00, 0x00, 0x00, 0x00, 0x00, 0x00, 0x00, 0x00,
  0x00, 0x00, 0x00, 0x00, 0x00, 0x00, 0x00, 0x00, 0x00, 0x00, 0x00, 0x00,
  0x00, 0x00, 0x00, 0x00, 0x00, 0x00, 0x00, 0x00, 0x00, 0x00, 0x00, 0x00,
  0x00, 0x00, 0x00, 0x00, 0x00, 0x00, 0x00, 0x00, 0x00, 0x00, 0x00, 0x00,
  0x10, 0x00, 0x00, 0x00, 0xb4, 0x13, 0x05, 0x39, 0xf8, 0x73, 0x37, 0x39,
  0x57, 0xc4, 0x59, 0x39, 0xab, 0x01, 0x68, 0x39, 0x1c, 0x9f, 0xa6, 0x39,
  0x98, 0x47, 0x16, 0x39, 0x36, 0x2a, 0x2d, 0x39, 0x09, 0x86, 0x39, 0x39,
  0xb5, 0x05, 0x30, 0x39, 0x27, 0xb6, 0x20, 0x39, 0xde, 0xe3, 0x4d, 0x39,
  0xe1, 0x7f, 0x19, 0x39, 0xc7, 0x64, 0x46, 0x39, 0x54, 0xa4, 0x28, 0x39,
  0x89, 0x6a, 0xad, 0x39, 0x47, 0x4b, 0x27, 0x39, 0x2c, 0x00, 0x00, 0x00,
  0x73, 0x65, 0x71, 0x75, 0x65, 0x6e, 0x74, 0x69, 0x61, 0x6c, 0x5f, 0x31,
  0x2f, 0x63, 0x6f, 0x6e, 0x76, 0x32, 0x64, 0x5f, 0x33, 0x2f, 0x42, 0x69,
  0x61, 0x73, 0x41, 0x64, 0x64, 0x2f, 0x52, 0x65, 0x61, 0x64, 0x56, 0x61,
  0x72, 0x69, 0x61, 0x62, 0x6c, 0x65, 0x4f, 0x70, 0x00, 0x00, 0x00, 0x00,
  0x01, 0x00, 0x00, 0x00, 0x10, 0x00, 0x00, 0x00, 0x00, 0x00, 0x16, 0x00,
  0x1c, 0x00, 0x18, 0x00, 0x17, 0x00, 0x10, 0x00, 0x0c, 0x00, 0x08, 0x00,
  0x00, 0x00, 0x00, 0x00, 0x00, 0x00, 0x07, 0x00, 0x16, 0x00, 0x00, 0x00,
  0x00, 0x00, 0x00, 0x01, 0x20, 0x00, 0x00, 0x00, 0xf0, 0x00, 0x00, 0x00,
  0x02, 0x00, 0x00, 0x00, 0x00, 0x00, 0x00, 0x02, 0x18, 0x01, 0x00, 0x00,
  0x0c, 0x00, 0x0c, 0x00, 0x00, 0x00, 0x00, 0x00, 0x08, 0x00, 0x04, 0x00,
  0x0c, 0x00, 0x00, 0x00, 0x08, 0x00, 0x00, 0x00, 0x88, 0x00, 0x00, 0x00,
  0x10, 0x00, 0x00, 0x00, 0x00, 0x00, 0x00, 0x00, 0x00, 0x00, 0x00, 0x00,
  0x00, 0x00, 0x00, 0x00, 0x00, 0x00, 0x00, 0x00, 0x00, 0x00, 0x00, 0x00,
  0x00, 0x00, 0x00, 0x00, 0x00, 0x00, 0x00, 0x00, 0x00, 0x00, 0x00, 0x00,
  0x00, 0x00, 0x00, 0x00, 0x00, 0x00, 0x00, 0x00, 0x00, 0x00, 0x00, 0x00,
  0x00, 0x00, 0x00, 0x00, 0x00, 0x00, 0x00, 0x00, 0x00, 0x00, 0x00, 0x00,
  0x00, 0x00, 0x00, 0x00, 0x00, 0x00, 0x00, 0x00, 0x00, 0x00, 0x00, 0x00,
  0x00, 0x00, 0x00, 0x00, 0x00, 0x00, 0x00, 0x00, 0x00, 0x00, 0x00, 0x00,
  0x00, 0x00, 0x00, 0x00, 0x00, 0x00, 0x00, 0x00, 0x00, 0x00, 0x00, 0x00,
  0x00, 0x00, 0x00, 0x00, 0x00, 0x00, 0x00, 0x00, 0x00, 0x00, 0x00, 0x00,
  0x00, 0x00, 0x00, 0x00, 0x00, 0x00, 0x00, 0x00, 0x00, 0x00, 0x00, 0x00,
  0x00, 0x00, 0x00, 0x00, 0x00, 0x00, 0x00, 0x00, 0x00, 0x00, 0x00, 0x00,
  0x10, 0x00, 0x00, 0x00, 0xc6, 0x2b, 0x13, 0x39, 0x7f, 0x44, 0x82, 0x39,
  0xdf, 0xd2, 0x85, 0x39, 0xdd, 0xd4, 0x6e, 0x39, 0x5c, 0x0b, 0x79, 0x39,
  0x71, 0x64, 0x8f, 0x39, 0x41, 0xac, 0x7a, 0x39, 0x21, 0xfe, 0x5d, 0x39,
  0xd0, 0x4a, 0x51, 0x39, 0x64, 0xf8, 0x7e, 0x39, 0x81, 0xab, 0x66, 0x39,
  0x3f, 0x6b, 0x92, 0x39, 0x1c, 0x52, 0x60, 0x39, 0x6d, 0x79, 0xf2, 0x38,
  0x24, 0x77, 0xd4, 0x39, 0x17, 0xa9, 0x96, 0x39, 0x2c, 0x00, 0x00, 0x00,
  0x73, 0x65, 0x71, 0x75, 0x65, 0x6e, 0x74, 0x69, 0x61, 0x6c, 0x5f, 0x31,
  0x2f, 0x63, 0x6f, 0x6e, 0x76, 0x32, 0x64, 0x5f, 0x32, 0x2f, 0x42, 0x69,
  0x61, 0x73, 0x41, 0x64, 0x64, 0x2f, 0x52, 0x65, 0x61, 0x64, 0x56, 0x61,
  0x72, 0x69, 0x61, 0x62, 0x6c, 0x65, 0x4f, 0x70, 0x00, 0x00, 0x00, 0x00,
  0x01, 0x00, 0x00, 0x00, 0x10, 0x00, 0x00, 0x00, 0x00, 0x00, 0x16, 0x00,
  0x20, 0x00, 0x1c, 0x00, 0x1b, 0x00, 0x14, 0x00, 0x10, 0x00, 0x0c, 0x00,
  0x00, 0x00, 0x00, 0x00, 0x08, 0x00, 0x07, 0x00, 0x16, 0x00, 0x00, 0x00,
  0x00, 0x00, 0x00, 0x01, 0x18, 0x00, 0x00, 0x00, 0x34, 0x00, 0x00, 0x00,
  0x68, 0x00, 0x00, 0x00, 0x01, 0x00, 0x00, 0x00, 0x00, 0x00, 0x00, 0x09,
  0x80, 0x00, 0x00, 0x00, 0x04, 0x00, 0x00, 0x00, 0xff, 0xff, 0xff, 0xff,
  0xfa, 0x00, 0x00, 0x00, 0x03, 0x00, 0x00, 0x00, 0x01, 0x00, 0x00, 0x00,
  0x0c, 0x00, 0x14, 0x00, 0x10, 0x00, 0x0c, 0x00, 0x08, 0x00, 0x04, 0x00,
  0x0c, 0x00, 0x00, 0x00, 0x10, 0x00, 0x00, 0x00, 0x18, 0x00, 0x00, 0x00,
  0x1c, 0x00, 0x00, 0x00, 0x20, 0x00, 0x00, 0x00, 0x01, 0x00, 0x00, 0x00,
  0x00, 0x00, 0x00, 0x00, 0x00, 0x00, 0x00, 0x00, 0x01, 0x00, 0x00, 0x00,
  0xd5, 0xdb, 0x55, 0x3d, 0x01, 0x00, 0x00, 0x00, 0xc6, 0xb0, 0xd4, 0x40,
  0x01, 0x00, 0x00, 0x00, 0x2c, 0x5b, 0xd5, 0xc0, 0x1e, 0x00, 0x00, 0x00,
  0x73, 0x65, 0x72, 0x76, 0x69, 0x6e, 0x67, 0x5f, 0x64, 0x65, 0x66, 0x61,
  0x75, 0x6c, 0x74, 0x5f, 0x69, 0x6e, 0x70, 0x75, 0x74, 0x5f, 0x32, 0x3a,
  0x30, 0x5f, 0x69, 0x6e, 0x74, 0x38, 0x00, 0x00, 0x04, 0x00, 0x00, 0x00,
  0x01, 0x00, 0x00, 0x00, 0xfa, 0x00, 0x00, 0x00, 0x03, 0x00, 0x00, 0x00,
  0x01, 0x00, 0x00, 0x00, 0x06, 0x00, 0x00, 0x00, 0x7c, 0x00, 0x00, 0x00,
  0x5c, 0x00, 0x00, 0x00, 0x48, 0x00, 0x00, 0x00, 0x34, 0x00, 0x00, 0x00,
  0x24, 0x00, 0x00, 0x00, 0x04, 0x00, 0x00, 0x00, 0xa8, 0xff, 0xff, 0xff,
  0x06, 0x00, 0x00, 0x00, 0x02, 0x00, 0x00, 0x00, 0x00, 0x00, 0x00, 0x06,
  0x0c, 0x00, 0x0c, 0x00, 0x0b, 0x00, 0x00, 0x00, 0x00, 0x00, 0x04, 0x00,
  0x0c, 0x00, 0x00, 0x00, 0x72, 0x00, 0x00, 0x00, 0x00, 0x00, 0x00, 0x72,
  0xd0, 0xff, 0xff, 0xff, 0x09, 0x00, 0x00, 0x00, 0x04, 0x00, 0x00, 0x00,
  0x00, 0x00, 0x00, 0x09, 0xe0, 0xff, 0xff, 0xff, 0x28, 0x00, 0x00, 0x00,
  0x02, 0x00, 0x00, 0x00, 0x00, 0x00, 0x00, 0x28, 0xf0, 0xff, 0xff, 0xff,
  0x01, 0x00, 0x00, 0x00, 0x02, 0x00, 0x00, 0x00, 0x00, 0x00, 0x00, 0x01,
  0x0c, 0x00, 0x10, 0x00, 0x0f, 0x00, 0x00, 0x00, 0x08, 0x00, 0x04, 0x00,
  0x0c, 0x00, 0x00, 0x00, 0x03, 0x00, 0x00, 0x00, 0x03, 0x00, 0x00, 0x00,
  0x00, 0x00, 0x00, 0x03
};
unsigned int model_tflite_len = 8200;
