/* Copyright 2019 The TensorFlow Authors. All Rights Reserved.

Licensed under the Apache License, Version 2.0 (the "License");
you may not use this file except in compliance with the License.
You may obtain a copy of the License at

    http://www.apache.org/licenses/LICENSE-2.0

Unless required by applicable law or agreed to in writing, software
distributed under the License is distributed on an "AS IS" BASIS,
WITHOUT WARRANTIES OR CONDITIONS OF ANY KIND, either express or implied.
See the License for the specific language governing permissions and
limitations under the License.
==============================================================================*/

// Automatically created from a TensorFlow Lite flatbuffer using the command:
// xxd -i magic_wand_model.tflite > magic_wand_model_data.cc
// See the README for a full description of the creation process.

#include "magic_wand_model_data.h"

// Keep model aligned to 8 bytes to guarantee aligned 64-bit accesses.
alignas(8) const unsigned char g_magic_wand_model_data[] = {      
  0x20, 0x00, 0x00, 0x00, 0x54, 0x46, 0x4c, 0x33, 0x00, 0x00, 0x00, 0x00,
  0x14, 0x00, 0x20, 0x00, 0x1c, 0x00, 0x18, 0x00, 0x14, 0x00, 0x10, 0x00,
  0x0c, 0x00, 0x00, 0x00, 0x08, 0x00, 0x04, 0x00, 0x14, 0x00, 0x00, 0x00,
  0x1c, 0x00, 0x00, 0x00, 0x84, 0x00, 0x00, 0x00, 0xdc, 0x00, 0x00, 0x00,
  0xe4, 0x0d, 0x00, 0x00, 0xf4, 0x0d, 0x00, 0x00, 0x40, 0x1f, 0x00, 0x00,
  0x03, 0x00, 0x00, 0x00, 0x01, 0x00, 0x00, 0x00, 0x04, 0x00, 0x00, 0x00,
  0x06, 0xf0, 0xff, 0xff, 0x0c, 0x00, 0x00, 0x00, 0x1c, 0x00, 0x00, 0x00,
  0x38, 0x00, 0x00, 0x00, 0x0f, 0x00, 0x00, 0x00, 0x73, 0x65, 0x72, 0x76,
  0x69, 0x6e, 0x67, 0x5f, 0x64, 0x65, 0x66, 0x61, 0x75, 0x6c, 0x74, 0x00,
  0x01, 0x00, 0x00, 0x00, 0x04, 0x00, 0x00, 0x00, 0x98, 0xff, 0xff, 0xff,
  0x11, 0x00, 0x00, 0x00, 0x04, 0x00, 0x00, 0x00, 0x07, 0x00, 0x00, 0x00,
  0x64, 0x65, 0x6e, 0x73, 0x65, 0x5f, 0x37, 0x00, 0x01, 0x00, 0x00, 0x00,
  0x04, 0x00, 0x00, 0x00, 0xb8, 0xff, 0xff, 0xff, 0x10, 0x00, 0x00, 0x00,
  0x04, 0x00, 0x00, 0x00, 0x07, 0x00, 0x00, 0x00, 0x69, 0x6e, 0x70, 0x75,
  0x74, 0x5f, 0x35, 0x00, 0x02, 0x00, 0x00, 0x00, 0x34, 0x00, 0x00, 0x00,
  0x04, 0x00, 0x00, 0x00, 0xdc, 0xff, 0xff, 0xff, 0x12, 0x00, 0x00, 0x00,
  0x04, 0x00, 0x00, 0x00, 0x13, 0x00, 0x00, 0x00, 0x43, 0x4f, 0x4e, 0x56,
  0x45, 0x52, 0x53, 0x49, 0x4f, 0x4e, 0x5f, 0x4d, 0x45, 0x54, 0x41, 0x44,
  0x41, 0x54, 0x41, 0x00, 0x08, 0x00, 0x0c, 0x00, 0x08, 0x00, 0x04, 0x00,
  0x08, 0x00, 0x00, 0x00, 0x11, 0x00, 0x00, 0x00, 0x04, 0x00, 0x00, 0x00,
  0x13, 0x00, 0x00, 0x00, 0x6d, 0x69, 0x6e, 0x5f, 0x72, 0x75, 0x6e, 0x74,
  0x69, 0x6d, 0x65, 0x5f, 0x76, 0x65, 0x72, 0x73, 0x69, 0x6f, 0x6e, 0x00,
  0x13, 0x00, 0x00, 0x00, 0x04, 0x0d, 0x00, 0x00, 0xfc, 0x0c, 0x00, 0x00,
  0xac, 0x0c, 0x00, 0x00, 0x54, 0x0c, 0x00, 0x00, 0xb4, 0x0b, 0x00, 0x00,
  0xa4, 0x02, 0x00, 0x00, 0x84, 0x02, 0x00, 0x00, 0x34, 0x02, 0x00, 0x00,
  0x1c, 0x02, 0x00, 0x00, 0x0c, 0x01, 0x00, 0x00, 0xbc, 0x00, 0x00, 0x00,
  0xb4, 0x00, 0x00, 0x00, 0xac, 0x00, 0x00, 0x00, 0xa4, 0x00, 0x00, 0x00,
  0x9c, 0x00, 0x00, 0x00, 0x94, 0x00, 0x00, 0x00, 0x8c, 0x00, 0x00, 0x00,
  0x6c, 0x00, 0x00, 0x00, 0x04, 0x00, 0x00, 0x00, 0x9e, 0xf3, 0xff, 0xff,
  0x04, 0x00, 0x00, 0x00, 0x58, 0x00, 0x00, 0x00, 0x0c, 0x00, 0x00, 0x00,
  0x08, 0x00, 0x0e, 0x00, 0x08, 0x00, 0x04, 0x00, 0x08, 0x00, 0x00, 0x00,
  0x10, 0x00, 0x00, 0x00, 0x28, 0x00, 0x00, 0x00, 0x00, 0x00, 0x06, 0x00,
  0x08, 0x00, 0x04, 0x00, 0x06, 0x00, 0x00, 0x00, 0x04, 0x00, 0x00, 0x00,
  0x01, 0x00, 0x00, 0x00, 0xeb, 0x03, 0x00, 0x00, 0x00, 0x00, 0x0a, 0x00,
  0x10, 0x00, 0x0c, 0x00, 0x08, 0x00, 0x04, 0x00, 0x0a, 0x00, 0x00, 0x00,
  0x02, 0x00, 0x00, 0x00, 0x02, 0x00, 0x00, 0x00, 0x04, 0x00, 0x00, 0x00,
  0x06, 0x00, 0x00, 0x00, 0x32, 0x2e, 0x31, 0x31, 0x2e, 0x30, 0x00, 0x00,
  0x02, 0xf4, 0xff, 0xff, 0x04, 0x00, 0x00, 0x00, 0x10, 0x00, 0x00, 0x00,
  0x31, 0x2e, 0x36, 0x2e, 0x30, 0x00, 0x00, 0x00, 0x00, 0x00, 0x00, 0x00,
  0x00, 0x00, 0x00, 0x00, 0x58, 0xea, 0xff, 0xff, 0x5c, 0xea, 0xff, 0xff,
  0x60, 0xea, 0xff, 0xff, 0x64, 0xea, 0xff, 0xff, 0x68, 0xea, 0xff, 0xff,
  0x6c, 0xea, 0xff, 0xff, 0x36, 0xf4, 0xff, 0xff, 0x04, 0x00, 0x00, 0x00,
  0x40, 0x00, 0x00, 0x00, 0x19, 0x4d, 0x35, 0xfa, 0x30, 0x2b, 0xcd, 0x49,
  0x24, 0x17, 0xa9, 0x9e, 0xbe, 0x98, 0xc5, 0xf0, 0x0a, 0x92, 0x81, 0x09,
  0xc3, 0xb6, 0x39, 0x03, 0x10, 0xf5, 0x64, 0x5f, 0xd5, 0x2b, 0xfa, 0x43,
  0xc4, 0xf8, 0xd4, 0xfc, 0x31, 0x57, 0x30, 0xc1, 0x84, 0x16, 0xe1, 0x1d,
  0xaa, 0xe9, 0xf1, 0x31, 0x42, 0xbe, 0x31, 0xbf, 0xfc, 0x04, 0x1d, 0xfa,
  0xa8, 0x13, 0xe8, 0x89, 0x66, 0x42, 0x10, 0x36, 0x82, 0xf4, 0xff, 0xff,
  0x04, 0x00, 0x00, 0x00, 0x00, 0x01, 0x00, 0x00, 0x1e, 0x2b, 0xdf, 0xde,
  0xf7, 0x10, 0x21, 0xd8, 0xd6, 0xee, 0xf9, 0xe0, 0x18, 0xd6, 0xdc, 0x2a,
  0xbc, 0x0b, 0x10, 0xd5, 0xfa, 0x27, 0x5d, 0x36, 0x3f, 0x47, 0x36, 0x40,
  0xc5, 0x10, 0xfd, 0xd6, 0x14, 0x9f, 0xe0, 0x11, 0xd1, 0x09, 0xdc, 0x03,
  0x48, 0x08, 0x34, 0x2e, 0xf4, 0xf5, 0xfe, 0x23, 0x16, 0xe9, 0x12, 0xf3,
  0xe0, 0x19, 0x10, 0xeb, 0xf4, 0xe9, 0x02, 0x00, 0xdc, 0xf1, 0xd9, 0xe9,
  0x1f, 0xe4, 0xf0, 0xe5, 0xdd, 0xdf, 0xd7, 0x27, 0xfe, 0x05, 0xfe, 0xed,
  0xed, 0x09, 0x05, 0xfb, 0xda, 0x48, 0x14, 0xe4, 0x0a, 0x49, 0x1e, 0x1d,
  0x16, 0x43, 0x37, 0x42, 0xef, 0x1b, 0x24, 0xeb, 0xe9, 0x00, 0x10, 0x1c,
  0xee, 0x1f, 0xe6, 0xd9, 0xec, 0x1c, 0x0e, 0x0c, 0xe0, 0xfa, 0xec, 0xf3,
  0x09, 0xcf, 0x10, 0xe1, 0xc6, 0x43, 0x25, 0x38, 0x02, 0xf7, 0x22, 0x42,
  0x08, 0xdf, 0x16, 0xc9, 0xde, 0x13, 0x2a, 0x09, 0xfe, 0xfe, 0x10, 0xf9,
  0x3f, 0x1a, 0xff, 0x2b, 0xca, 0xcc, 0x20, 0xc3, 0x0b, 0x03, 0xe5, 0xd5,
  0x07, 0xe2, 0x04, 0xfb, 0xdb, 0x22, 0xfc, 0xdf, 0x15, 0xf6, 0x07, 0x16,
  0x40, 0xf1, 0x1e, 0x19, 0x28, 0xbe, 0x0a, 0xcc, 0x09, 0xdf, 0xc0, 0xd2,
  0x3b, 0xfe, 0x21, 0x2a, 0x14, 0x60, 0x27, 0x14, 0x0f, 0xfe, 0x63, 0xca,
  0xe1, 0xde, 0xe0, 0x16, 0x20, 0x21, 0xf0, 0xfd, 0xf7, 0xbd, 0xed, 0x34,
  0x00, 0x0c, 0x81, 0x2c, 0x1a, 0xe7, 0x17, 0xe6, 0x02, 0xf8, 0x26, 0x0b,
  0x3c, 0xb2, 0x0f, 0x3e, 0x27, 0xcd, 0x97, 0x0c, 0x06, 0xe4, 0xe7, 0xc4,
  0xff, 0x3e, 0x37, 0x28, 0x1c, 0x09, 0xee, 0x29, 0xde, 0xfe, 0xd9, 0xf1,
  0x0b, 0x1d, 0xdc, 0xed, 0x05, 0x00, 0xdb, 0xf4, 0xd3, 0x0b, 0x01, 0xee,
  0xd0, 0x0d, 0xdf, 0x00, 0xd9, 0x0a, 0x14, 0x1e, 0xe9, 0xfa, 0x11, 0x0e,
  0x8e, 0xf5, 0xff, 0xff, 0x04, 0x00, 0x00, 0x00, 0x08, 0x00, 0x00, 0x00,
  0x01, 0x00, 0x00, 0x00, 0x02, 0x00, 0x00, 0x00, 0xa2, 0xf5, 0xff, 0xff,
  0x04, 0x00, 0x00, 0x00, 0x40, 0x00, 0x00, 0x00, 0x00, 0x00, 0x00, 0x00,
  0x0c, 0x01, 0x00, 0x00, 0x22, 0x01, 0x00, 0x00, 0x00, 0x00, 0x00, 0x00,
  0x00, 0x00, 0x00, 0x00, 0x46, 0x01, 0x00, 0x00, 0xf5, 0xff, 0xff, 0xff,
  0xea, 0x00, 0x00, 0x00, 0x21, 0x01, 0x00, 0x00, 0x00, 0x00, 0x00, 0x00,
  0x30, 0xff, 0xff, 0xff, 0x0d, 0xff, 0xff, 0xff, 0xa4, 0xff, 0xff, 0xff,
  0x47, 0xff, 0xff, 0xff, 0x00, 0x00, 0x00, 0x00, 0x8c, 0xff, 0xff, 0xff,
  0xee, 0xf5, 0xff, 0xff, 0x04, 0x00, 0x00, 0x00, 0x10, 0x00, 0x00, 0x00,
  0xbe, 0x00, 0x00, 0x00, 0x1a, 0xff, 0xff, 0xff, 0xa2, 0x00, 0x00, 0x00,
  0x01, 0x00, 0x00, 0x00, 0x0a, 0xf6, 0xff, 0xff, 0x04, 0x00, 0x00, 0x00,
  0x00, 0x09, 0x00, 0x00, 0xf2, 0xe6, 0x38, 0x1e, 0x2a, 0xc8, 0x27, 0x19,
  0xeb, 0xdd, 0x3a, 0x67, 0xe9, 0xe3, 0x3a, 0xd2, 0xd4, 0x36, 0x41, 0xe8,
  0x0d, 0x18, 0x43, 0x24, 0x49, 0xf3, 0xf9, 0x28, 0x43, 0x2a, 0x3f, 0xbf,
  0xe5, 0x37, 0x3b, 0xe8, 0x4a, 0x35, 0x57, 0x52, 0x1c, 0x69, 0x21, 0x5c,
  0x3e, 0x58, 0x58, 0xdc, 0xbd, 0x1e, 0x1d, 0xd6, 0xf2, 0xe6, 0x3a, 0x1f,
  0x39, 0xd2, 0x06, 0x0f, 0x16, 0x1f, 0x4a, 0xf3, 0xf4, 0x41, 0x75, 0xdb,
  0x53, 0xe9, 0x53, 0xff, 0x09, 0x28, 0x08, 0x30, 0xfe, 0x45, 0x3c, 0x18,
  0xb6, 0x24, 0x7f, 0xf1, 0x3c, 0x32, 0x50, 0x56, 0x54, 0x56, 0x20, 0x50,
  0x52, 0x2f, 0x55, 0xfc, 0x00, 0xe9, 0x19, 0xdc, 0xee, 0xe6, 0x35, 0xec,
  0x13, 0x03, 0xf3, 0x43, 0x32, 0x0f, 0x28, 0xd5, 0xca, 0x44, 0x6c, 0xeb,
  0x54, 0xef, 0x1d, 0x18, 0x30, 0x11, 0x43, 0x48, 0x32, 0x3f, 0x19, 0xcc,
  0xaa, 0x4c, 0x61, 0xb2, 0x3b, 0x0f, 0x6a, 0x59, 0x33, 0x6e, 0x09, 0x5f,
  0x5c, 0x7e, 0x4e, 0xd2, 0x2e, 0xce, 0xe2, 0x17, 0x10, 0xc8, 0x53, 0xe1,
  0x53, 0xc6, 0x46, 0x3d, 0x00, 0xb0, 0x13, 0x8b, 0x2b, 0xb7, 0xe0, 0xfc,
  0xf8, 0xc0, 0x36, 0xdc, 0x71, 0xb9, 0x34, 0x3c, 0xe6, 0xf2, 0xc0, 0xb0,
  0x16, 0xb6, 0xd4, 0xf2, 0xda, 0xf3, 0x21, 0x07, 0x40, 0xa0, 0x67, 0xd1,
  0xd8, 0x59, 0xb9, 0x81, 0xf6, 0xce, 0x4e, 0xf5, 0xee, 0xe5, 0x30, 0x29,
  0x0d, 0xdf, 0x24, 0x14, 0x18, 0x0b, 0x03, 0x20, 0x00, 0xcd, 0x31, 0x0f,
  0x04, 0xe1, 0xf7, 0x28, 0x3e, 0xf5, 0x39, 0x19, 0xfe, 0x08, 0xff, 0x06,
  0x00, 0xa1, 0xfa, 0x18, 0xec, 0xf7, 0xfb, 0x1c, 0x05, 0xde, 0x15, 0x3e,
  0x04, 0x1a, 0x2c, 0x03, 0x06, 0xe5, 0x3b, 0x14, 0x2c, 0xc9, 0xee, 0x1e,
  0x81, 0xdc, 0xb5, 0x57, 0x4e, 0x09, 0x0e, 0x2a, 0x1d, 0xc5, 0x21, 0x1d,
  0x4e, 0xbc, 0xf3, 0x2b, 0xb9, 0xdc, 0xc4, 0x27, 0x32, 0x2d, 0x27, 0x31,
  0xf3, 0x98, 0xfd, 0xf0, 0x3f, 0xaa, 0xed, 0x0f, 0xd7, 0xd6, 0xb9, 0x32,
  0x36, 0x0e, 0x3e, 0x1c, 0xfb, 0xd5, 0x1e, 0x08, 0xc9, 0x46, 0x02, 0x07,
  0x14, 0xfb, 0x36, 0x1f, 0xfd, 0x1b, 0xfd, 0x15, 0x08, 0xb3, 0x4d, 0x0c,
  0xc3, 0x2f, 0x0c, 0x3a, 0x0a, 0x19, 0x2b, 0x01, 0x02, 0x53, 0x15, 0x1c,
  0xd5, 0xad, 0x47, 0xe3, 0xc6, 0x47, 0xc5, 0x48, 0x3b, 0x17, 0x55, 0x3c,
  0xbc, 0x2a, 0x38, 0x2d, 0x2b, 0xd0, 0x4a, 0x19, 0xd1, 0x2a, 0x04, 0x2d,
  0x41, 0x50, 0x36, 0x23, 0x30, 0x02, 0x17, 0x0a, 0x21, 0xd8, 0x02, 0x15,
  0xff, 0x3f, 0xd2, 0x11, 0x06, 0x35, 0x2d, 0x2e, 0xfa, 0x3a, 0x1d, 0x28,
  0xec, 0xa6, 0xf6, 0x20, 0xac, 0x06, 0xfa, 0x2f, 0x34, 0xf3, 0x40, 0x2e,
  0xe6, 0x7f, 0x26, 0x19, 0xf5, 0xe7, 0x59, 0x2b, 0xca, 0x10, 0xce, 0x5a,
  0x12, 0x29, 0x19, 0x3c, 0x19, 0x28, 0xfd, 0x15, 0x25, 0xed, 0x21, 0x2f,
  0xfc, 0xf7, 0xd5, 0x5d, 0x3f, 0xf6, 0x39, 0x2d, 0x03, 0x1d, 0x39, 0x3b,
  0x0e, 0xea, 0x46, 0x10, 0xaf, 0x2b, 0xb9, 0x23, 0x26, 0xfd, 0x3f, 0x3f,
  0xf5, 0x5e, 0x43, 0x34, 0xfa, 0x2e, 0x0c, 0x0a, 0x0b, 0x02, 0x2a, 0x0f,
  0xfb, 0xda, 0xf5, 0x39, 0x0f, 0x07, 0x0e, 0xe2, 0xea, 0x5d, 0x44, 0xfe,
  0x1e, 0x02, 0x33, 0x11, 0x25, 0x17, 0xec, 0x16, 0x47, 0x09, 0xfd, 0xe9,
  0xcd, 0x60, 0x46, 0xdb, 0x58, 0xf2, 0x7f, 0x0a, 0x3a, 0x33, 0x01, 0x03,
  0x5f, 0x03, 0x33, 0xec, 0xdd, 0x18, 0xf7, 0xf6, 0x09, 0x05, 0x19, 0xf4,
  0x0d, 0xff, 0x0a, 0x18, 0x23, 0x0b, 0x15, 0xef, 0x05, 0x5c, 0x0d, 0xe2,
  0x2c, 0x10, 0x3a, 0xf7, 0x13, 0x06, 0x18, 0x22, 0x20, 0x3c, 0x26, 0x02,
  0xf9, 0x5c, 0x1d, 0xeb, 0x72, 0x27, 0x64, 0x3c, 0x23, 0x3e, 0xfa, 0x0a,
  0x52, 0x11, 0xf9, 0xf2, 0xfb, 0x0d, 0x10, 0x0c, 0x20, 0xf4, 0x33, 0xf8,
  0xf9, 0xd3, 0x00, 0xfa, 0x13, 0x14, 0x0f, 0x02, 0xc7, 0x48, 0x3a, 0xef,
  0x39, 0x0e, 0x4b, 0x1e, 0xf8, 0x26, 0x06, 0x42, 0x33, 0x29, 0xf7, 0xd8,
  0xcd, 0x77, 0x35, 0xe0, 0x47, 0xfe, 0x75, 0x36, 0x44, 0x35, 0x13, 0x37,
  0x3f, 0x3a, 0x25, 0x1f, 0xfa, 0x22, 0x40, 0xe1, 0xfe, 0x1e, 0xf6, 0x36,
  0x3b, 0x46, 0x30, 0x33, 0x0e, 0x3f, 0x30, 0x00, 0xba, 0x05, 0x62, 0xc5,
  0x2b, 0x32, 0x0f, 0x46, 0x24, 0x52, 0x58, 0x38, 0x0c, 0x63, 0x19, 0x12,
  0xb3, 0x26, 0x29, 0xc1, 0xf2, 0x0d, 0x21, 0x33, 0x2d, 0x37, 0x21, 0x41,
  0xf0, 0x54, 0x5b, 0xfe, 0xe0, 0x1a, 0x22, 0xc8, 0x0d, 0x22, 0x09, 0x24,
  0x1f, 0x3b, 0x30, 0x46, 0x2f, 0x1e, 0x33, 0xf9, 0xf3, 0xeb, 0x42, 0xd0,
  0xf8, 0x44, 0x36, 0x18, 0x4f, 0x2a, 0x67, 0x0b, 0x18, 0x3d, 0x22, 0x17,
  0xc8, 0x07, 0x56, 0xcf, 0xf7, 0x10, 0x07, 0x30, 0x2d, 0x35, 0x2f, 0x51,
  0xe8, 0x78, 0x4c, 0xf8, 0xd1, 0xfe, 0x5b, 0x08, 0x11, 0x41, 0x07, 0x08,
  0x36, 0x48, 0x36, 0x46, 0x08, 0x30, 0x12, 0xfa, 0xfd, 0x1e, 0x2f, 0xdd,
  0x29, 0x20, 0x02, 0x15, 0x49, 0x25, 0x54, 0x11, 0x26, 0x24, 0x50, 0x32,
  0xcb, 0xf3, 0x25, 0xe6, 0x13, 0x3e, 0x1d, 0x2a, 0x49, 0x52, 0x5f, 0x22,
  0xf0, 0x7f, 0x2d, 0xfc, 0x40, 0x09, 0xd0, 0x3b, 0x2a, 0x0a, 0xeb, 0x3a,
  0x1e, 0x47, 0xef, 0xe9, 0xf8, 0x0b, 0xf4, 0x43, 0x2f, 0x02, 0xcb, 0x59,
  0xf3, 0x58, 0xf6, 0xe3, 0x0f, 0x09, 0xdf, 0xfc, 0x3c, 0xa7, 0xe3, 0x62,
  0x5e, 0xbb, 0xdb, 0x62, 0xba, 0x0a, 0xbe, 0xcb, 0xbe, 0xb5, 0x2c, 0xd9,
  0x07, 0xbc, 0xdb, 0x51, 0x7a, 0xf9, 0xb2, 0x2a, 0x15, 0x3d, 0x02, 0x43,
  0x00, 0x37, 0x0b, 0xb1, 0x1c, 0x17, 0xfa, 0x58, 0x7f, 0x13, 0xf2, 0x39,
  0x1c, 0x50, 0xee, 0xef, 0x0c, 0xd8, 0xff, 0xd3, 0x2e, 0xed, 0xe5, 0x77,
  0x2f, 0xc8, 0x97, 0x39, 0xdd, 0xfd, 0xb5, 0xe7, 0x01, 0x94, 0x29, 0x00,
  0x04, 0xb0, 0xd9, 0x35, 0x65, 0x2a, 0xfa, 0x27, 0x09, 0x13, 0x0b, 0x0a,
  0x3b, 0x21, 0xd9, 0x10, 0xf4, 0xf6, 0xca, 0x78, 0x37, 0xe4, 0xbb, 0x4f,
  0xec, 0x29, 0xd4, 0x06, 0x13, 0x1a, 0x20, 0xd8, 0xe0, 0xec, 0xd0, 0x34,
  0x35, 0xc7, 0xa2, 0x2e, 0xf2, 0x18, 0xa1, 0xe9, 0xe8, 0xf3, 0xdd, 0x13,
  0xfa, 0xa3, 0xde, 0x41, 0x34, 0xbc, 0xe3, 0x38, 0xfb, 0xd0, 0x26, 0xc1,
  0x66, 0x92, 0x26, 0x42, 0xff, 0x83, 0xed, 0x9b, 0x44, 0xb8, 0xeb, 0x13,
  0xfa, 0xcf, 0x1a, 0xc8, 0x45, 0x81, 0x47, 0x22, 0xd6, 0xfc, 0xc3, 0x9f,
  0x2a, 0xcd, 0xd4, 0xfc, 0xe0, 0xd5, 0x34, 0x10, 0x49, 0x99, 0x63, 0x03,
  0xd2, 0x5d, 0xc4, 0xb7, 0x40, 0xce, 0x37, 0x2c, 0xed, 0xf7, 0xf6, 0x36,
  0x2a, 0xe8, 0x1c, 0x2f, 0x0f, 0x08, 0x04, 0x0e, 0x2e, 0xb1, 0x28, 0x34,
  0xf9, 0xd9, 0xfb, 0x0d, 0x1f, 0xd8, 0x31, 0x0b, 0x01, 0x03, 0xfc, 0x0e,
  0x15, 0xc9, 0xea, 0x26, 0xe7, 0xe9, 0xde, 0x16, 0x0e, 0xea, 0x1f, 0x3b,
  0xed, 0x30, 0xfa, 0x18, 0x0d, 0xde, 0x64, 0x41, 0x25, 0x9c, 0xfe, 0x2e,
  0xb1, 0xc9, 0xc0, 0x38, 0x36, 0x1c, 0x06, 0x2a, 0x20, 0xb9, 0x2b, 0x39,
  0x2d, 0x9a, 0xe8, 0x39, 0xc4, 0xc0, 0xb4, 0x30, 0x33, 0x15, 0x17, 0x36,
  0x31, 0xb6, 0xfa, 0x30, 0x0c, 0x9b, 0xd7, 0x17, 0xe0, 0xe6, 0xd5, 0x22,
  0x13, 0x22, 0x1d, 0x36, 0x6a, 0x32, 0xdc, 0x3b, 0x36, 0x08, 0x06, 0x01,
  0xc0, 0x1f, 0xd5, 0xe7, 0x19, 0xe4, 0xe1, 0x19, 0x75, 0x46, 0xf1, 0x43,
  0x28, 0x11, 0x25, 0xdd, 0xbe, 0xf9, 0x88, 0x0e, 0x2f, 0xe1, 0xcc, 0x3c,
  0x3b, 0x5d, 0xf4, 0x75, 0x45, 0xe2, 0x29, 0xc5, 0xcc, 0x18, 0x8d, 0xd3,
  0x3c, 0xa5, 0xc5, 0x0a, 0x68, 0x24, 0xdb, 0x3a, 0x34, 0xc8, 0x29, 0xe0,
  0x04, 0x0d, 0xd1, 0x07, 0x32, 0xca, 0x19, 0xf4, 0x5b, 0x67, 0xee, 0x6c,
  0x19, 0x18, 0x37, 0xb8, 0x15, 0xe0, 0xd6, 0x12, 0x22, 0xd1, 0xf8, 0x0c,
  0x5c, 0x61, 0x09, 0x3a, 0x60, 0xfa, 0x29, 0xd7, 0xd7, 0x28, 0xc9, 0x04,
  0x54, 0x8a, 0xaa, 0x18, 0x74, 0x00, 0x07, 0x27, 0x12, 0xce, 0xf8, 0xe2,
  0xcc, 0x05, 0xe5, 0xd3, 0x3f, 0xf8, 0xf9, 0x1a, 0x3c, 0x4a, 0xd4, 0x70,
  0x5c, 0xcc, 0xf9, 0xfd, 0xc5, 0xcd, 0xaf, 0x1f, 0x5d, 0xb3, 0x1c, 0x0b,
  0x34, 0x30, 0x13, 0x5c, 0x46, 0xf5, 0x37, 0x14, 0xfd, 0xc2, 0xbe, 0x10,
  0x23, 0x81, 0xd5, 0x2f, 0x2e, 0x1b, 0xb4, 0x4c, 0xfb, 0xcd, 0xfa, 0xfe,
  0xfb, 0x00, 0xac, 0xf2, 0x21, 0xe7, 0xe2, 0x36, 0x75, 0x42, 0xb5, 0x46,
  0x4e, 0x1a, 0x1d, 0x07, 0xf5, 0xf5, 0xb3, 0x35, 0x11, 0xe1, 0xd8, 0x02,
  0x7e, 0x39, 0xc0, 0x3d, 0x34, 0xec, 0x46, 0xcf, 0x20, 0xc2, 0xa6, 0x21,
  0x6a, 0x9f, 0x9f, 0x46, 0x68, 0x44, 0xd4, 0x7c, 0xfa, 0xfd, 0x07, 0xf1,
  0xc9, 0xff, 0xfb, 0x24, 0x2c, 0x09, 0x08, 0x0d, 0x67, 0x54, 0xce, 0x67,
  0x43, 0x03, 0x23, 0xd9, 0xd6, 0xca, 0xdb, 0x1e, 0x16, 0xac, 0xd8, 0x2b,
  0x63, 0x2b, 0xfa, 0x7f, 0x47, 0x0c, 0x20, 0x09, 0x0d, 0x08, 0xd3, 0x00,
  0x4e, 0x9b, 0xab, 0x57, 0x7b, 0x06, 0xc8, 0x49, 0x3e, 0xf3, 0x0c, 0xd1,
  0xd7, 0xe7, 0xe2, 0x1b, 0xfc, 0xf1, 0xf0, 0x1d, 0x65, 0x35, 0xf2, 0x47,
  0x3a, 0xe5, 0x27, 0xca, 0xf4, 0xe4, 0xc1, 0x33, 0x41, 0xc9, 0xc1, 0x25,
  0x73, 0x34, 0xd3, 0x52, 0x42, 0x11, 0x21, 0xfa, 0xdd, 0xee, 0x9c, 0xf0,
  0x2d, 0x8e, 0xc6, 0x14, 0x42, 0x3a, 0xfc, 0x4e, 0xed, 0x3f, 0x1e, 0x1f,
  0x35, 0x1d, 0xe5, 0xe8, 0x2b, 0xf0, 0xed, 0x2c, 0x2d, 0xdc, 0xc0, 0x69,
  0xdc, 0x4f, 0xf9, 0xd7, 0xec, 0x08, 0xf8, 0xbc, 0x14, 0xb8, 0x0e, 0x40,
  0x48, 0xb0, 0xe4, 0x71, 0xc1, 0x1e, 0xb7, 0xfa, 0x0b, 0xd0, 0x13, 0xe8,
  0xf7, 0xdf, 0xfb, 0x55, 0x6a, 0x02, 0xfc, 0x5c, 0x15, 0x1d, 0x15, 0x32,
  0xf7, 0x15, 0x11, 0xfa, 0x33, 0xfe, 0xd4, 0x34, 0x58, 0xe5, 0xa4, 0x1f,
  0xce, 0x5a, 0xe3, 0x02, 0x16, 0xd2, 0xf8, 0x0c, 0x2b, 0xd5, 0xf9, 0x66,
  0x7f, 0xa9, 0xd1, 0x3d, 0xb9, 0x11, 0xe2, 0x01, 0xdb, 0xe0, 0xeb, 0xff,
  0xcf, 0xcf, 0xbd, 0x58, 0x46, 0xe8, 0xba, 0x45, 0x14, 0x62, 0xf5, 0x15,
  0x1c, 0x1c, 0x0e, 0xe6, 0xee, 0x25, 0x19, 0x2f, 0x37, 0x28, 0xfd, 0x6a,
  0xea, 0x0a, 0x04, 0x01, 0x00, 0x24, 0x0c, 0xd0, 0xee, 0xfd, 0x12, 0x6c,
  0x4e, 0xbf, 0xbe, 0x4e, 0xc9, 0x34, 0xa7, 0xc4, 0x16, 0xb0, 0x10, 0xce,
  0xd8, 0xda, 0xde, 0x42, 0x76, 0x2c, 0xad, 0x5c, 0x25, 0xe5, 0x36, 0x1b,
  0x14, 0xe4, 0x07, 0xb0, 0xec, 0xf2, 0x1d, 0x44, 0x5d, 0x40, 0xf7, 0x50,
  0x36, 0x20, 0x30, 0xcb, 0x1b, 0x1b, 0x02, 0xd2, 0x4f, 0xbe, 0xc7, 0x17,
  0x6c, 0xef, 0xe4, 0x41, 0x18, 0xe9, 0x12, 0xf3, 0xf4, 0xfa, 0xc2, 0xcd,
  0x1e, 0x81, 0xeb, 0xfa, 0x55, 0x17, 0xd5, 0x56, 0x1a, 0xee, 0xed, 0xf9,
  0x21, 0x2e, 0xf6, 0xc3, 0x07, 0x14, 0xd5, 0x3f, 0x6f, 0x21, 0xef, 0x5e,
  0x3b, 0x15, 0x35, 0xe7, 0xf3, 0x15, 0xfd, 0xeb, 0x14, 0xd6, 0xef, 0x52,
  0x43, 0x05, 0xe9, 0x79, 0xed, 0x25, 0xe0, 0xed, 0xf7, 0xba, 0xca, 0xc4,
  0x20, 0x9d, 0xbd, 0x08, 0x5a, 0x4e, 0x93, 0x24, 0x39, 0xe9, 0x21, 0xe6,
  0x08, 0xdd, 0x02, 0xe7, 0x0b, 0x1e, 0xf7, 0x3c, 0x66, 0x12, 0xd0, 0x3a,
  0x07, 0x21, 0xf8, 0xf5, 0x03, 0xdd, 0xf8, 0xc4, 0x2d, 0xdb, 0xe2, 0x10,
  0x62, 0x30, 0xd5, 0x53, 0xec, 0xe3, 0x1d, 0xec, 0xe9, 0xcb, 0xd4, 0xe2,
  0xf9, 0x99, 0xa0, 0x47, 0x2b, 0x07, 0xd7, 0x5f, 0xde, 0x11, 0x0c, 0x24,
  0xfa, 0xf9, 0x29, 0x11, 0xe2, 0xf3, 0x09, 0x3e, 0x3e, 0xe5, 0xf2, 0x29,
  0xe1, 0x34, 0xd4, 0x23, 0x23, 0x1a, 0x09, 0xd6, 0xef, 0xd9, 0xf2, 0x55,
  0x5d, 0xb5, 0xb6, 0x34, 0xe3, 0x2d, 0x81, 0x05, 0xc6, 0xd7, 0xf6, 0xfb,
  0xd1, 0xdb, 0x03, 0x44, 0x5a, 0xe7, 0xd5, 0x24, 0xee, 0x1a, 0xe9, 0x1f,
  0x29, 0x06, 0x31, 0xf5, 0x1e, 0x1f, 0xe5, 0x44, 0x6e, 0xfe, 0xd8, 0x5f,
  0xfa, 0x3e, 0xc8, 0x01, 0xf2, 0x11, 0x38, 0x03, 0xe1, 0xbd, 0xd5, 0x31,
  0x6f, 0xa6, 0xcb, 0x45, 0xb6, 0x0e, 0xd8, 0xe4, 0x0b, 0xde, 0x24, 0x27,
  0xc8, 0xde, 0x13, 0x42, 0x6e, 0xe4, 0xcc, 0x2c, 0x0e, 0x35, 0xe2, 0x2e,
  0x35, 0x1c, 0x0c, 0xfc, 0xf4, 0x24, 0xfb, 0x5b, 0x53, 0xf0, 0xf5, 0x6f,
  0xb4, 0x2c, 0xd8, 0xfe, 0x31, 0xea, 0x1c, 0xff, 0xce, 0xe8, 0xde, 0x3e,
  0x76, 0xe7, 0xc8, 0x60, 0x99, 0xff, 0x92, 0xe3, 0x15, 0xde, 0x1a, 0x03,
  0xb3, 0xfd, 0x24, 0x1e, 0xde, 0x0c, 0x79, 0xbb, 0xea, 0x24, 0xf3, 0x09,
  0x46, 0xec, 0x63, 0x13, 0xfb, 0x3e, 0x2c, 0x02, 0xc2, 0xfc, 0x5d, 0x03,
  0xea, 0x03, 0xfc, 0x40, 0x23, 0xf9, 0x09, 0x42, 0xf2, 0x62, 0x06, 0x11,
  0xb8, 0xe9, 0x5f, 0xcc, 0x24, 0x25, 0x26, 0x4f, 0x2f, 0x44, 0x38, 0x6d,
  0x37, 0x47, 0x46, 0xfa, 0xc0, 0xfc, 0x3b, 0x12, 0x19, 0xe0, 0x0e, 0x4d,
  0x2a, 0x19, 0x43, 0x37, 0x29, 0x23, 0xe0, 0x01, 0x95, 0x17, 0x24, 0xd7,
  0xd3, 0xeb, 0x0a, 0x69, 0x5b, 0x3d, 0x46, 0x38, 0xef, 0x59, 0x4b, 0x02,
  0xc7, 0xf2, 0x59, 0x9a, 0x1a, 0x3c, 0x2b, 0x65, 0x28, 0x7c, 0x57, 0x1d,
  0x46, 0x79, 0x4c, 0x04, 0x9a, 0xc2, 0x3a, 0xb6, 0xee, 0x32, 0xe9, 0x3b,
  0x2c, 0xd8, 0x60, 0x5d, 0x24, 0x0e, 0x39, 0xfc, 0x9a, 0x1f, 0x37, 0xb9,
  0xd9, 0x3a, 0x01, 0x55, 0x2a, 0x59, 0x1c, 0x1e, 0xea, 0x45, 0x0e, 0xf5,
  0xbf, 0xeb, 0x28, 0xc3, 0x2c, 0x35, 0x29, 0x68, 0x07, 0x6d, 0x69, 0x31,
  0x2a, 0x7f, 0x27, 0x15, 0xcf, 0x21, 0x2a, 0x19, 0x37, 0x76, 0x3e, 0x29,
  0x34, 0x6e, 0x6b, 0x52, 0x4a, 0x3b, 0x4b, 0x61, 0xcb, 0x02, 0x3d, 0xd2,
  0x3d, 0x58, 0xf9, 0x52, 0x5e, 0x32, 0x5d, 0x20, 0x03, 0x48, 0x5c, 0x66,
  0xc2, 0xd6, 0x10, 0x08, 0x0a, 0x4b, 0x22, 0x4d, 0x4f, 0x19, 0x2d, 0x32,
  0x20, 0x3d, 0x1f, 0x2b, 0xd9, 0x47, 0x22, 0xf6, 0x43, 0x42, 0x58, 0x5d,
  0x36, 0x4e, 0x74, 0x04, 0x47, 0x6e, 0x2b, 0x25, 0xc2, 0x1c, 0x1e, 0xe4,
  0x07, 0x38, 0x23, 0x3e, 0x65, 0x27, 0x5c, 0x23, 0x15, 0x5d, 0x46, 0x64,
  0xc7, 0xd3, 0x3f, 0xe6, 0x05, 0x49, 0xd9, 0x44, 0x3c, 0x0f, 0x6f, 0x16,
  0x27, 0x44, 0x2b, 0x46, 0xc5, 0x50, 0x73, 0xf6, 0x52, 0x3d, 0x1c, 0x5c,
  0x30, 0x6f, 0x33, 0x48, 0x52, 0x43, 0x42, 0x28, 0xd6, 0x34, 0x1d, 0xf5,
  0xfe, 0x75, 0x2c, 0x60, 0x54, 0x23, 0x7f, 0x1f, 0x02, 0x34, 0x1c, 0x4c,
  0xd8, 0x03, 0x25, 0xe8, 0xf1, 0x29, 0x07, 0x5a, 0x51, 0x0c, 0x69, 0x32,
  0xf0, 0x32, 0x55, 0x61, 0x17, 0x29, 0x1e, 0x18, 0x29, 0x03, 0x30, 0xeb,
  0xf8, 0x1f, 0x07, 0x02, 0x16, 0x1d, 0x41, 0x34, 0x15, 0x60, 0x2a, 0x18,
  0x45, 0x15, 0x41, 0xfb, 0x2b, 0x3a, 0xd0, 0x3e, 0x21, 0x07, 0x27, 0x36,
  0x1d, 0x48, 0x1d, 0x36, 0x79, 0x2d, 0x57, 0x12, 0x22, 0x3a, 0xf5, 0xfb,
  0x57, 0x0f, 0x1b, 0x1e, 0x34, 0x50, 0x0e, 0x09, 0x21, 0x0a, 0x4c, 0x15,
  0x28, 0x0d, 0x08, 0x0c, 0x31, 0x2b, 0x08, 0x37, 0x1b, 0x42, 0x01, 0x3c,
  0x5a, 0x1c, 0x65, 0x1e, 0x02, 0x26, 0xe8, 0x2f, 0x20, 0xfe, 0x13, 0x13,
  0x07, 0x3d, 0x2e, 0x2f, 0x41, 0x12, 0x4d, 0x32, 0x39, 0x2d, 0x09, 0x27,
  0x31, 0xdd, 0xef, 0xf9, 0x0a, 0x49, 0xec, 0x34, 0x2d, 0xec, 0x16, 0xf0,
  0x0e, 0x0e, 0x03, 0xf9, 0x00, 0x1f, 0x06, 0xfd, 0x31, 0x66, 0x0a, 0x51,
  0x42, 0xeb, 0x48, 0x28, 0x01, 0x0b, 0xf2, 0x38, 0x56, 0xe3, 0x1c, 0xfe,
  0x19, 0x5d, 0x2f, 0x32, 0x40, 0x15, 0x7f, 0x13, 0x15, 0x4e, 0xf0, 0x03,
  0x6b, 0xca, 0x1d, 0x2e, 0xf6, 0x26, 0x35, 0xe1, 0x24, 0xfd, 0x25, 0x0c,
  0x0e, 0xe4, 0x20, 0x0e, 0x08, 0x09, 0x0c, 0xf8, 0xe9, 0x50, 0x26, 0xe7,
  0x29, 0x05, 0x3e, 0xfd, 0x2d, 0x34, 0x21, 0x1e, 0x19, 0x27, 0x39, 0xfd,
  0xeb, 0x52, 0x50, 0xd2, 0x63, 0xfc, 0x71, 0x0d, 0x1c, 0x3a, 0x03, 0x03,
  0x61, 0x15, 0x35, 0xf7, 0xd1, 0x35, 0x2a, 0xe6, 0x43, 0x11, 0x1a, 0xf1,
  0x14, 0xe4, 0x0e, 0x36, 0xfd, 0x06, 0x07, 0xe3, 0xf5, 0x44, 0x45, 0xf0,
  0x2d, 0x1e, 0x50, 0x1a, 0x10, 0x2e, 0x23, 0x42, 0x1a, 0x36, 0x31, 0xf0,
  0xd2, 0x46, 0x26, 0xd1, 0x54, 0x1a, 0x7f, 0x08, 0x18, 0x4f, 0x1c, 0x13,
  0x57, 0x20, 0x36, 0x20, 0xe7, 0x0c, 0x34, 0xef, 0x1b, 0x14, 0x3e, 0x17,
  0x18, 0xeb, 0xff, 0x0b, 0x35, 0x1d, 0x3d, 0x0c, 0xf1, 0x27, 0x24, 0x04,
  0x27, 0xef, 0x50, 0x00, 0x11, 0x25, 0x04, 0x24, 0x25, 0x12, 0x3c, 0xe5,
  0xd7, 0x6e, 0x40, 0xe8, 0x54, 0x29, 0x40, 0x0a, 0x20, 0x43, 0x27, 0x26,
  0x5e, 0x39, 0x0b, 0x1d, 0x16, 0xff, 0xff, 0xff, 0x04, 0x00, 0x00, 0x00,
  0x90, 0x00, 0x00, 0x00, 0x85, 0x81, 0xa8, 0xf5, 0xd2, 0xff, 0xfa, 0xd2,
  0xf5, 0xf6, 0x4a, 0x73, 0x08, 0xc6, 0x81, 0x1d, 0x5e, 0x4a, 0xff, 0xdd,
  0x3f, 0x24, 0x28, 0x81, 0x1d, 0xe0, 0x9e, 0xef, 0xc2, 0xbc, 0x0e, 0xe4,
  0x43, 0xab, 0x9f, 0x81, 0x00, 0xc4, 0x94, 0xf9, 0x2a, 0x42, 0xcf, 0x87,
  0x81, 0x3b, 0x43, 0x52, 0x62, 0x49, 0x0d, 0x68, 0x74, 0x7f, 0xd9, 0xae,
  0x81, 0xf2, 0xaa, 0x8a, 0xe7, 0x0c, 0xc9, 0x9f, 0x5d, 0x56, 0x14, 0x66,
  0xa2, 0x43, 0x81, 0x9b, 0xb9, 0x81, 0x95, 0xb7, 0xca, 0x30, 0x26, 0x45,
  0x77, 0x13, 0x5a, 0x7d, 0x00, 0x4b, 0x68, 0xf3, 0x4f, 0x7f, 0x81, 0x9d,
  0xfa, 0xa0, 0x50, 0x4f, 0x43, 0x6b, 0x22, 0x09, 0x1a, 0x81, 0x44, 0xa3,
  0xde, 0xa1, 0xdf, 0xcb, 0xe5, 0x0d, 0xf7, 0xd0, 0xb8, 0xbd, 0xe7, 0xaf,
  0x81, 0x81, 0x30, 0x46, 0xdb, 0x30, 0x2b, 0x26, 0xec, 0xe2, 0x2d, 0x35,
  0x23, 0x7f, 0xc1, 0x98, 0xc4, 0xed, 0xca, 0x7f, 0x6d, 0x6b, 0x09, 0x3b,
  0x24, 0x9c, 0xa9, 0xc4, 0xb2, 0xff, 0xff, 0xff, 0x04, 0x00, 0x00, 0x00,
  0x40, 0x00, 0x00, 0x00, 0x3b, 0xfb, 0xff, 0xff, 0xc6, 0x00, 0x00, 0x00,
  0x2d, 0xfe, 0xff, 0xff, 0x37, 0xfd, 0xff, 0xff, 0x46, 0xfc, 0xff, 0xff,
  0xee, 0x08, 0x00, 0x00, 0x65, 0x02, 0x00, 0x00, 0xe2, 0x06, 0x00, 0x00,
  0x67, 0x06, 0x00, 0x00, 0x0f, 0x07, 0x00, 0x00, 0x76, 0x07, 0x00, 0x00,
  0x6c, 0x06, 0x00, 0x00, 0x5e, 0xfa, 0xff, 0xff, 0x78, 0xfd, 0xff, 0xff,
  0x55, 0x01, 0x00, 0x00, 0x00, 0xfd, 0xff, 0xff, 0x00, 0x00, 0x06, 0x00,
  0x08, 0x00, 0x04, 0x00, 0x06, 0x00, 0x00, 0x00, 0x04, 0x00, 0x00, 0x00,
  0x40, 0x00, 0x00, 0x00, 0x24, 0x10, 0x00, 0x00, 0x3c, 0xfe, 0xff, 0xff,
  0x44, 0xfd, 0xff, 0xff, 0x07, 0x15, 0x00, 0x00, 0xf9, 0xfd, 0xff, 0xff,
  0x32, 0x01, 0x00, 0x00, 0xb1, 0xfe, 0xff, 0xff, 0xcb, 0xfd, 0xff, 0xff,
  0xf5, 0xfe, 0xff, 0xff, 0x30, 0xfd, 0xff, 0xff, 0x63, 0xfd, 0xff, 0xff,
  0x53, 0xff, 0xff, 0xff, 0x02, 0x00, 0x00, 0x00, 0x9a, 0xfd, 0xff, 0xff,
  0x9e, 0xfb, 0xff, 0xff, 0x0b, 0x06, 0x00, 0x00, 0x8c, 0xf6, 0xff, 0xff,
  0x90, 0xf6, 0xff, 0xff, 0x0f, 0x00, 0x00, 0x00, 0x4d, 0x4c, 0x49, 0x52,
  0x20, 0x43, 0x6f, 0x6e, 0x76, 0x65, 0x72, 0x74, 0x65, 0x64, 0x2e, 0x00,
  0x01, 0x00, 0x00, 0x00, 0x14, 0x00, 0x00, 0x00, 0x00, 0x00, 0x0e, 0x00,
  0x18, 0x00, 0x14, 0x00, 0x10, 0x00, 0x0c, 0x00, 0x08, 0x00, 0x04, 0x00,
  0x0e, 0x00, 0x00, 0x00, 0x14, 0x00, 0x00, 0x00, 0x1c, 0x00, 0x00, 0x00,
  0x20, 0x02, 0x00, 0x00, 0x24, 0x02, 0x00, 0x00, 0x28, 0x02, 0x00, 0x00,
  0x04, 0x00, 0x00, 0x00, 0x6d, 0x61, 0x69, 0x6e, 0x00, 0x00, 0x00, 0x00,
  0x08, 0x00, 0x00, 0x00, 0xe4, 0x01, 0x00, 0x00, 0x8c, 0x01, 0x00, 0x00,
  0x3c, 0x01, 0x00, 0x00, 0xe8, 0x00, 0x00, 0x00, 0xa4, 0x00, 0x00, 0x00,
  0x60, 0x00, 0x00, 0x00, 0x28, 0x00, 0x00, 0x00, 0x04, 0x00, 0x00, 0x00,
  0x46, 0xfe, 0xff, 0xff, 0x0c, 0x00, 0x00, 0x00, 0x10, 0x00, 0x00, 0x00,
  0x05, 0x00, 0x00, 0x00, 0x01, 0x00, 0x00, 0x00, 0x11, 0x00, 0x00, 0x00,
  0x01, 0x00, 0x00, 0x00, 0x0f, 0x00, 0x00, 0x00, 0x5a, 0xff, 0xff, 0xff,
  0x14, 0x00, 0x00, 0x00, 0x00, 0x00, 0x00, 0x08, 0x10, 0x00, 0x00, 0x00,
  0x14, 0x00, 0x00, 0x00, 0x03, 0x00, 0x00, 0x00, 0x40, 0xf7, 0xff, 0xff,
  0x01, 0x00, 0x00, 0x00, 0x0f, 0x00, 0x00, 0x00, 0x03, 0x00, 0x00, 0x00,
  0x0e, 0x00, 0x00, 0x00, 0x09, 0x00, 0x00, 0x00, 0x05, 0x00, 0x00, 0x00,
  0x8e, 0xff, 0xff, 0xff, 0x1c, 0x00, 0x00, 0x00, 0x00, 0x00, 0x00, 0x08,
  0x1c, 0x00, 0x00, 0x00, 0x20, 0x00, 0x00, 0x00, 0x03, 0x00, 0x00, 0x00,
  0x00, 0x00, 0x06, 0x00, 0x08, 0x00, 0x07, 0x00, 0x06, 0x00, 0x00, 0x00,
  0x00, 0x00, 0x00, 0x01, 0x01, 0x00, 0x00, 0x00, 0x0e, 0x00, 0x00, 0x00,
  0x03, 0x00, 0x00, 0x00, 0x0d, 0x00, 0x00, 0x00, 0x08, 0x00, 0x00, 0x00,
  0x06, 0x00, 0x00, 0x00, 0xce, 0xff, 0xff, 0xff, 0x14, 0x00, 0x00, 0x00,
  0x00, 0x00, 0x00, 0x1b, 0x10, 0x00, 0x00, 0x00, 0x14, 0x00, 0x00, 0x00,
  0x02, 0x00, 0x00, 0x00, 0xb4, 0xf7, 0xff, 0xff, 0x01, 0x00, 0x00, 0x00,
  0x0d, 0x00, 0x00, 0x00, 0x02, 0x00, 0x00, 0x00, 0x0c, 0x00, 0x00, 0x00,
  0x07, 0x00, 0x00, 0x00, 0x00, 0x00, 0x0e, 0x00, 0x1a, 0x00, 0x14, 0x00,
  0x10, 0x00, 0x0c, 0x00, 0x0b, 0x00, 0x04, 0x00, 0x0e, 0x00, 0x00, 0x00,
  0x24, 0x00, 0x00, 0x00, 0x00, 0x00, 0x00, 0x05, 0x34, 0x00, 0x00, 0x00,
  0x38, 0x00, 0x00, 0x00, 0x01, 0x00, 0x00, 0x00, 0x00, 0x00, 0x0e, 0x00,
  0x18, 0x00, 0x17, 0x00, 0x10, 0x00, 0x0c, 0x00, 0x08, 0x00, 0x04, 0x00,
  0x0e, 0x00, 0x00, 0x00, 0x02, 0x00, 0x00, 0x00, 0x02, 0x00, 0x00, 0x00,
  0x02, 0x00, 0x00, 0x00, 0x02, 0x00, 0x00, 0x00, 0x00, 0x00, 0x00, 0x01,
  0x01, 0x00, 0x00, 0x00, 0x0c, 0x00, 0x00, 0x00, 0x01, 0x00, 0x00, 0x00,
  0x0b, 0x00, 0x00, 0x00, 0xc2, 0xff, 0xff, 0xff, 0x10, 0x00, 0x00, 0x00,
  0x00, 0x00, 0x00, 0x01, 0x18, 0x00, 0x00, 0x00, 0x1c, 0x00, 0x00, 0x00,
  0xb4, 0xff, 0xff, 0xff, 0x00, 0x00, 0x00, 0x01, 0x01, 0x00, 0x00, 0x00,
  0x01, 0x00, 0x00, 0x00, 0x01, 0x00, 0x00, 0x00, 0x0b, 0x00, 0x00, 0x00,
  0x03, 0x00, 0x00, 0x00, 0x0a, 0x00, 0x00, 0x00, 0x04, 0x00, 0x00, 0x00,
  0x02, 0x00, 0x00, 0x00, 0x00, 0x00, 0x0e, 0x00, 0x14, 0x00, 0x00, 0x00,
  0x10, 0x00, 0x0c, 0x00, 0x0b, 0x00, 0x04, 0x00, 0x0e, 0x00, 0x00, 0x00,
  0x1c, 0x00, 0x00, 0x00, 0x00, 0x00, 0x00, 0x01, 0x24, 0x00, 0x00, 0x00,
  0x28, 0x00, 0x00, 0x00, 0x0c, 0x00, 0x10, 0x00, 0x00, 0x00, 0x0c, 0x00,
  0x08, 0x00, 0x07, 0x00, 0x0c, 0x00, 0x00, 0x00, 0x00, 0x00, 0x00, 0x01,
  0x01, 0x00, 0x00, 0x00, 0x01, 0x00, 0x00, 0x00, 0x01, 0x00, 0x00, 0x00,
  0x0a, 0x00, 0x00, 0x00, 0x03, 0x00, 0x00, 0x00, 0x00, 0x00, 0x00, 0x00,
  0x03, 0x00, 0x00, 0x00, 0x01, 0x00, 0x00, 0x00, 0x00, 0x00, 0x0a, 0x00,
  0x10, 0x00, 0x0c, 0x00, 0x08, 0x00, 0x04, 0x00, 0x0a, 0x00, 0x00, 0x00,
  0x0c, 0x00, 0x00, 0x00, 0x10, 0x00, 0x00, 0x00, 0x04, 0x00, 0x00, 0x00,
  0x01, 0x00, 0x00, 0x00, 0x00, 0x00, 0x00, 0x00, 0x01, 0x00, 0x00, 0x00,
  0x10, 0x00, 0x00, 0x00, 0x01, 0x00, 0x00, 0x00, 0x11, 0x00, 0x00, 0x00,
  0x01, 0x00, 0x00, 0x00, 0x10, 0x00, 0x00, 0x00, 0x12, 0x00, 0x00, 0x00,
  0x48, 0x0e, 0x00, 0x00, 0xf4, 0x0c, 0x00, 0x00, 0xac, 0x0b, 0x00, 0x00,
  0xf0, 0x09, 0x00, 0x00, 0x34, 0x08, 0x00, 0x00, 0xb8, 0x07, 0x00, 0x00,
  0x3c, 0x07, 0x00, 0x00, 0xc8, 0x06, 0x00, 0x00, 0x44, 0x06, 0x00, 0x00,
  0xc0, 0x05, 0x00, 0x00, 0x94, 0x04, 0x00, 0x00, 0x88, 0x03, 0x00, 0x00,
  0xd4, 0x02, 0x00, 0x00, 0x28, 0x02, 0x00, 0x00, 0x5c, 0x01, 0x00, 0x00,
  0xc0, 0x00, 0x00, 0x00, 0x64, 0x00, 0x00, 0x00, 0x04, 0x00, 0x00, 0x00,
  0xb8, 0xff, 0xff, 0xff, 0x0c, 0x00, 0x00, 0x00, 0x14, 0x00, 0x00, 0x00,
  0x30, 0x00, 0x00, 0x00, 0x02, 0x00, 0x00, 0x00, 0xff, 0xff, 0xff, 0xff,
  0x04, 0x00, 0x00, 0x00, 0x19, 0x00, 0x00, 0x00, 0x53, 0x74, 0x61, 0x74,
  0x65, 0x66, 0x75, 0x6c, 0x50, 0x61, 0x72, 0x74, 0x69, 0x74, 0x69, 0x6f,
  0x6e, 0x65, 0x64, 0x43, 0x61, 0x6c, 0x6c, 0x3a, 0x30, 0x00, 0x00, 0x00,
  0x02, 0x00, 0x00, 0x00, 0x01, 0x00, 0x00, 0x00, 0x04, 0x00, 0x00, 0x00,
  0x14, 0x00, 0x10, 0x00, 0x0c, 0x00, 0x00, 0x00, 0x00, 0x00, 0x08, 0x00,
  0x00, 0x00, 0x00, 0x00, 0x00, 0x00, 0x04, 0x00, 0x14, 0x00, 0x00, 0x00,
  0x0c, 0x00, 0x00, 0x00, 0x1c, 0x00, 0x00, 0x00, 0x38, 0x00, 0x00, 0x00,
  0x04, 0x00, 0x00, 0x00, 0xff, 0xff, 0xff, 0xff, 0xfa, 0x00, 0x00, 0x00,
  0x03, 0x00, 0x00, 0x00, 0x01, 0x00, 0x00, 0x00, 0x19, 0x00, 0x00, 0x00,
  0x73, 0x65, 0x72, 0x76, 0x69, 0x6e, 0x67, 0x5f, 0x64, 0x65, 0x66, 0x61,
  0x75, 0x6c, 0x74, 0x5f, 0x69, 0x6e, 0x70, 0x75, 0x74, 0x5f, 0x35, 0x3a,
  0x30, 0x00, 0x00, 0x00, 0x04, 0x00, 0x00, 0x00, 0x01, 0x00, 0x00, 0x00,
  0xfa, 0x00, 0x00, 0x00, 0x03, 0x00, 0x00, 0x00, 0x01, 0x00, 0x00, 0x00,
  0xca, 0xf2, 0xff, 0xff, 0x00, 0x00, 0x00, 0x01, 0x18, 0x00, 0x00, 0x00,
  0x20, 0x00, 0x00, 0x00, 0x58, 0x00, 0x00, 0x00, 0x10, 0x00, 0x00, 0x00,
  0x00, 0x00, 0x00, 0x09, 0x70, 0x00, 0x00, 0x00, 0x02, 0x00, 0x00, 0x00,
  0xff, 0xff, 0xff, 0xff, 0x04, 0x00, 0x00, 0x00, 0xac, 0xf2, 0xff, 0xff,
  0x10, 0x00, 0x00, 0x00, 0x1c, 0x00, 0x00, 0x00, 0x20, 0x00, 0x00, 0x00,
  0x24, 0x00, 0x00, 0x00, 0x01, 0x00, 0x00, 0x00, 0x20, 0x00, 0x00, 0x00,
  0x00, 0x00, 0x00, 0x00, 0x00, 0x00, 0x00, 0x00, 0x01, 0x00, 0x00, 0x00,
  0x78, 0x14, 0x6d, 0x3e, 0x01, 0x00, 0x00, 0x00, 0xb7, 0x38, 0xb0, 0x41,
  0x01, 0x00, 0x00, 0x00, 0x08, 0x0b, 0x14, 0xc2, 0x1e, 0x00, 0x00, 0x00,
  0x53, 0x74, 0x61, 0x74, 0x65, 0x66, 0x75, 0x6c, 0x50, 0x61, 0x72, 0x74,
  0x69, 0x74, 0x69, 0x6f, 0x6e, 0x65, 0x64, 0x43, 0x61, 0x6c, 0x6c, 0x3a,
  0x30, 0x5f, 0x69, 0x6e, 0x74, 0x38, 0x00, 0x00, 0x02, 0x00, 0x00, 0x00,
  0x01, 0x00, 0x00, 0x00, 0x04, 0x00, 0x00, 0x00, 0x62, 0xf3, 0xff, 0xff,
  0x00, 0x00, 0x00, 0x01, 0x18, 0x00, 0x00, 0x00, 0x20, 0x00, 0x00, 0x00,
  0x54, 0x00, 0x00, 0x00, 0x0f, 0x00, 0x00, 0x00, 0x00, 0x00, 0x00, 0x09,
  0xa0, 0x00, 0x00, 0x00, 0x02, 0x00, 0x00, 0x00, 0xff, 0xff, 0xff, 0xff,
  0x10, 0x00, 0x00, 0x00, 0x44, 0xf3, 0xff, 0xff, 0x10, 0x00, 0x00, 0x00,
  0x18, 0x00, 0x00, 0x00, 0x1c, 0x00, 0x00, 0x00, 0x20, 0x00, 0x00, 0x00,
  0x01, 0x00, 0x00, 0x00, 0x80, 0xff, 0xff, 0xff, 0xff, 0xff, 0xff, 0xff,
  0x01, 0x00, 0x00, 0x00, 0xe3, 0x39, 0xb3, 0x3d, 0x01, 0x00, 0x00, 0x00,
  0xa9, 0x86, 0xb2, 0x41, 0x01, 0x00, 0x00, 0x00, 0x00, 0x00, 0x00, 0x00,
  0x52, 0x00, 0x00, 0x00, 0x73, 0x65, 0x71, 0x75, 0x65, 0x6e, 0x74, 0x69,
  0x61, 0x6c, 0x5f, 0x33, 0x2f, 0x64, 0x65, 0x6e, 0x73, 0x65, 0x5f, 0x36,
  0x2f, 0x4d, 0x61, 0x74, 0x4d, 0x75, 0x6c, 0x3b, 0x73, 0x65, 0x71, 0x75,
  0x65, 0x6e, 0x74, 0x69, 0x61, 0x6c, 0x5f, 0x33, 0x2f, 0x64, 0x65, 0x6e,
  0x73, 0x65, 0x5f, 0x36, 0x2f, 0x52, 0x65, 0x6c, 0x75, 0x3b, 0x73, 0x65,
  0x71, 0x75, 0x65, 0x6e, 0x74, 0x69, 0x61, 0x6c, 0x5f, 0x33, 0x2f, 0x64,
  0x65, 0x6e, 0x73, 0x65, 0x5f, 0x36, 0x2f, 0x42, 0x69, 0x61, 0x73, 0x41,
  0x64, 0x64, 0x00, 0x00, 0x02, 0x00, 0x00, 0x00, 0x01, 0x00, 0x00, 0x00,
  0x10, 0x00, 0x00, 0x00, 0x2a, 0xf4, 0xff, 0xff, 0x00, 0x00, 0x00, 0x01,
  0x18, 0x00, 0x00, 0x00, 0x20, 0x00, 0x00, 0x00, 0x58, 0x00, 0x00, 0x00,
  0x0e, 0x00, 0x00, 0x00, 0x00, 0x00, 0x00, 0x09, 0x80, 0x00, 0x00, 0x00,
  0x02, 0x00, 0x00, 0x00, 0xff, 0xff, 0xff, 0xff, 0x10, 0x00, 0x00, 0x00,
  0x0c, 0xf4, 0xff, 0xff, 0x10, 0x00, 0x00, 0x00, 0x1c, 0x00, 0x00, 0x00,
  0x20, 0x00, 0x00, 0x00, 0x24, 0x00, 0x00, 0x00, 0x01, 0x00, 0x00, 0x00,
  0x80, 0xff, 0xff, 0xff, 0xff, 0xff, 0xff, 0xff, 0x00, 0x00, 0x00, 0x00,
  0x01, 0x00, 0x00, 0x00, 0xd2, 0x57, 0x60, 0x3d, 0x01, 0x00, 0x00, 0x00,
  0x7a, 0x77, 0x5f, 0x41, 0x01, 0x00, 0x00, 0x00, 0x00, 0x00, 0x00, 0x00,
  0x2c, 0x00, 0x00, 0x00, 0x73, 0x65, 0x71, 0x75, 0x65, 0x6e, 0x74, 0x69,
  0x61, 0x6c, 0x5f, 0x33, 0x2f, 0x67, 0x6c, 0x6f, 0x62, 0x61, 0x6c, 0x5f,
  0x61, 0x76, 0x65, 0x72, 0x61, 0x67, 0x65, 0x5f, 0x70, 0x6f, 0x6f, 0x6c,
  0x69, 0x6e, 0x67, 0x32, 0x64, 0x5f, 0x32, 0x2f, 0x4d, 0x65, 0x61, 0x6e,
  0x00, 0x00, 0x00, 0x00, 0x02, 0x00, 0x00, 0x00, 0x01, 0x00, 0x00, 0x00,
  0x10, 0x00, 0x00, 0x00, 0xd2, 0xf4, 0xff, 0xff, 0x00, 0x00, 0x00, 0x01,
  0x18, 0x00, 0x00, 0x00, 0x28, 0x00, 0x00, 0x00, 0x5c, 0x00, 0x00, 0x00,
  0x0d, 0x00, 0x00, 0x00, 0x00, 0x00, 0x00, 0x09, 0x80, 0x00, 0x00, 0x00,
  0x04, 0x00, 0x00, 0x00, 0xff, 0xff, 0xff, 0xff, 0x7d, 0x00, 0x00, 0x00,
  0x01, 0x00, 0x00, 0x00, 0x10, 0x00, 0x00, 0x00, 0xbc, 0xf4, 0xff, 0xff,
  0x10, 0x00, 0x00, 0x00, 0x18, 0x00, 0x00, 0x00, 0x1c, 0x00, 0x00, 0x00,
  0x20, 0x00, 0x00, 0x00, 0x01, 0x00, 0x00, 0x00, 0x80, 0xff, 0xff, 0xff,
  0xff, 0xff, 0xff, 0xff, 0x01, 0x00, 0x00, 0x00, 0x12, 0x33, 0x36, 0x3e,
  0x01, 0x00, 0x00, 0x00, 0xdf, 0x7c, 0x35, 0x42, 0x01, 0x00, 0x00, 0x00,
  0x00, 0x00, 0x00, 0x00, 0x28, 0x00, 0x00, 0x00, 0x73, 0x65, 0x71, 0x75,
  0x65, 0x6e, 0x74, 0x69, 0x61, 0x6c, 0x5f, 0x33, 0x2f, 0x61, 0x76, 0x65,
  0x72, 0x61, 0x67, 0x65, 0x5f, 0x70, 0x6f, 0x6f, 0x6c, 0x69, 0x6e, 0x67,
  0x32, 0x64, 0x5f, 0x31, 0x2f, 0x41, 0x76, 0x67, 0x50, 0x6f, 0x6f, 0x6c,
  0x00, 0x00, 0x00, 0x00, 0x04, 0x00, 0x00, 0x00, 0x01, 0x00, 0x00, 0x00,
  0x7d, 0x00, 0x00, 0x00, 0x01, 0x00, 0x00, 0x00, 0x10, 0x00, 0x00, 0x00,
  0x82, 0xf5, 0xff, 0xff, 0x00, 0x00, 0x00, 0x01, 0x18, 0x00, 0x00, 0x00,
  0x28, 0x00, 0x00, 0x00, 0x5c, 0x00, 0x00, 0x00, 0x0c, 0x00, 0x00, 0x00,
  0x00, 0x00, 0x00, 0x09, 0xd8, 0x00, 0x00, 0x00, 0x04, 0x00, 0x00, 0x00,
  0xff, 0xff, 0xff, 0xff, 0xfa, 0x00, 0x00, 0x00, 0x03, 0x00, 0x00, 0x00,
  0x10, 0x00, 0x00, 0x00, 0x6c, 0xf5, 0xff, 0xff, 0x10, 0x00, 0x00, 0x00,
  0x18, 0x00, 0x00, 0x00, 0x1c, 0x00, 0x00, 0x00, 0x20, 0x00, 0x00, 0x00,
  0x01, 0x00, 0x00, 0x00, 0x80, 0xff, 0xff, 0xff, 0xff, 0xff, 0xff, 0xff,
  0x01, 0x00, 0x00, 0x00, 0x12, 0x33, 0x36, 0x3e, 0x01, 0x00, 0x00, 0x00,
  0xdf, 0x7c, 0x35, 0x42, 0x01, 0x00, 0x00, 0x00, 0x00, 0x00, 0x00, 0x00,
  0x82, 0x00, 0x00, 0x00, 0x73, 0x65, 0x71, 0x75, 0x65, 0x6e, 0x74, 0x69,
  0x61, 0x6c, 0x5f, 0x33, 0x2f, 0x63, 0x6f, 0x6e, 0x76, 0x32, 0x64, 0x5f,
  0x39, 0x2f, 0x52, 0x65, 0x6c, 0x75, 0x3b, 0x73, 0x65, 0x71, 0x75, 0x65,
  0x6e, 0x74, 0x69, 0x61, 0x6c, 0x5f, 0x33, 0x2f, 0x63, 0x6f, 0x6e, 0x76,
  0x32, 0x64, 0x5f, 0x39, 0x2f, 0x42, 0x69, 0x61, 0x73, 0x41, 0x64, 0x64,
  0x3b, 0x73, 0x65, 0x71, 0x75, 0x65, 0x6e, 0x74, 0x69, 0x61, 0x6c, 0x5f,
  0x33, 0x2f, 0x63, 0x6f, 0x6e, 0x76, 0x32, 0x64, 0x5f, 0x39, 0x2f, 0x43,
  0x6f, 0x6e, 0x76, 0x32, 0x44, 0x3b, 0x73, 0x65, 0x71, 0x75, 0x65, 0x6e,
  0x74, 0x69, 0x61, 0x6c, 0x5f, 0x33, 0x2f, 0x63, 0x6f, 0x6e, 0x76, 0x32,
  0x64, 0x5f, 0x39, 0x2f, 0x42, 0x69, 0x61, 0x73, 0x41, 0x64, 0x64, 0x2f,
  0x52, 0x65, 0x61, 0x64, 0x56, 0x61, 0x72, 0x69, 0x61, 0x62, 0x6c, 0x65,
  0x4f, 0x70, 0x00, 0x00, 0x04, 0x00, 0x00, 0x00, 0x01, 0x00, 0x00, 0x00,
  0xfa, 0x00, 0x00, 0x00, 0x03, 0x00, 0x00, 0x00, 0x10, 0x00, 0x00, 0x00,
  0x8a, 0xf6, 0xff, 0xff, 0x00, 0x00, 0x00, 0x01, 0x18, 0x00, 0x00, 0x00,
  0x28, 0x00, 0x00, 0x00, 0x60, 0x00, 0x00, 0x00, 0x0b, 0x00, 0x00, 0x00,
  0x00, 0x00, 0x00, 0x09, 0xf8, 0x00, 0x00, 0x00, 0x04, 0x00, 0x00, 0x00,
  0xff, 0xff, 0xff, 0xff, 0xfa, 0x00, 0x00, 0x00, 0x03, 0x00, 0x00, 0x00,
  0x10, 0x00, 0x00, 0x00, 0x74, 0xf6, 0xff, 0xff, 0x10, 0x00, 0x00, 0x00,
  0x1c, 0x00, 0x00, 0x00, 0x20, 0x00, 0x00, 0x00, 0x24, 0x00, 0x00, 0x00,
  0x01, 0x00, 0x00, 0x00, 0x80, 0xff, 0xff, 0xff, 0xff, 0xff, 0xff, 0xff,
  0x00, 0x00, 0x00, 0x00, 0x01, 0x00, 0x00, 0x00, 0x0b, 0xec, 0x33, 0x3d,
  0x01, 0x00, 0x00, 0x00, 0x1f, 0x38, 0x33, 0x41, 0x01, 0x00, 0x00, 0x00,
  0x00, 0x00, 0x00, 0x00, 0x9f, 0x00, 0x00, 0x00, 0x73, 0x65, 0x71, 0x75,
  0x65, 0x6e, 0x74, 0x69, 0x61, 0x6c, 0x5f, 0x33, 0x2f, 0x63, 0x6f, 0x6e,
  0x76, 0x32, 0x64, 0x5f, 0x38, 0x2f, 0x52, 0x65, 0x6c, 0x75, 0x3b, 0x73,
  0x65, 0x71, 0x75, 0x65, 0x6e, 0x74, 0x69, 0x61, 0x6c, 0x5f, 0x33, 0x2f,
  0x63, 0x6f, 0x6e, 0x76, 0x32, 0x64, 0x5f, 0x38, 0x2f, 0x42, 0x69, 0x61,
  0x73, 0x41, 0x64, 0x64, 0x3b, 0x73, 0x65, 0x71, 0x75, 0x65, 0x6e, 0x74,
  0x69, 0x61, 0x6c, 0x5f, 0x33, 0x2f, 0x63, 0x6f, 0x6e, 0x76, 0x32, 0x64,
  0x5f, 0x39, 0x2f, 0x43, 0x6f, 0x6e, 0x76, 0x32, 0x44, 0x3b, 0x73, 0x65,
  0x71, 0x75, 0x65, 0x6e, 0x74, 0x69, 0x61, 0x6c, 0x5f, 0x33, 0x2f, 0x63,
  0x6f, 0x6e, 0x76, 0x32, 0x64, 0x5f, 0x38, 0x2f, 0x43, 0x6f, 0x6e, 0x76,
  0x32, 0x44, 0x3b, 0x73, 0x65, 0x71, 0x75, 0x65, 0x6e, 0x74, 0x69, 0x61,
  0x6c, 0x5f, 0x33, 0x2f, 0x63, 0x6f, 0x6e, 0x76, 0x32, 0x64, 0x5f, 0x38,
  0x2f, 0x42, 0x69, 0x61, 0x73, 0x41, 0x64, 0x64, 0x2f, 0x52, 0x65, 0x61,
  0x64, 0x56, 0x61, 0x72, 0x69, 0x61, 0x62, 0x6c, 0x65, 0x4f, 0x70, 0x00,
  0x04, 0x00, 0x00, 0x00, 0x01, 0x00, 0x00, 0x00, 0xfa, 0x00, 0x00, 0x00,
  0x03, 0x00, 0x00, 0x00, 0x10, 0x00, 0x00, 0x00, 0x02, 0xf9, 0xff, 0xff,
  0x00, 0x00, 0x00, 0x01, 0x14, 0x00, 0x00, 0x00, 0x48, 0x00, 0x00, 0x00,
  0x0a, 0x00, 0x00, 0x00, 0x00, 0x00, 0x00, 0x09, 0x5c, 0x00, 0x00, 0x00,
  0x84, 0xf7, 0xff, 0xff, 0x10, 0x00, 0x00, 0x00, 0x18, 0x00, 0x00, 0x00,
  0x1c, 0x00, 0x00, 0x00, 0x20, 0x00, 0x00, 0x00, 0x01, 0x00, 0x00, 0x00,
  0x00, 0x00, 0x00, 0x00, 0x00, 0x00, 0x00, 0x00, 0x01, 0x00, 0x00, 0x00,
  0xfc, 0xc0, 0x02, 0x3c, 0x01, 0x00, 0x00, 0x00, 0x58, 0xee, 0x4f, 0x3f,
  0x01, 0x00, 0x00, 0x00, 0x7a, 0xbb, 0x81, 0xbf, 0x1b, 0x00, 0x00, 0x00,
  0x73, 0x65, 0x71, 0x75, 0x65, 0x6e, 0x74, 0x69, 0x61, 0x6c, 0x5f, 0x33,
  0x2f, 0x64, 0x65, 0x6e, 0x73, 0x65, 0x5f, 0x37, 0x2f, 0x4d, 0x61, 0x74,
  0x4d, 0x75, 0x6c, 0x00, 0x02, 0x00, 0x00, 0x00, 0x04, 0x00, 0x00, 0x00,
  0x10, 0x00, 0x00, 0x00, 0x82, 0xf9, 0xff, 0xff, 0x00, 0x00, 0x00, 0x01,
  0x14, 0x00, 0x00, 0x00, 0x48, 0x00, 0x00, 0x00, 0x09, 0x00, 0x00, 0x00,
  0x00, 0x00, 0x00, 0x09, 0x5c, 0x00, 0x00, 0x00, 0x04, 0xf8, 0xff, 0xff,
  0x10, 0x00, 0x00, 0x00, 0x18, 0x00, 0x00, 0x00, 0x1c, 0x00, 0x00, 0x00,
  0x20, 0x00, 0x00, 0x00, 0x01, 0x00, 0x00, 0x00, 0x00, 0x00, 0x00, 0x00,
  0x00, 0x00, 0x00, 0x00, 0x01, 0x00, 0x00, 0x00, 0x09, 0x13, 0x23, 0x3c,
  0x01, 0x00, 0x00, 0x00, 0xc6, 0xfc, 0x7b, 0x3f, 0x01, 0x00, 0x00, 0x00,
  0xe3, 0xcc, 0xa1, 0xbf, 0x1b, 0x00, 0x00, 0x00, 0x73, 0x65, 0x71, 0x75,
  0x65, 0x6e, 0x74, 0x69, 0x61, 0x6c, 0x5f, 0x33, 0x2f, 0x64, 0x65, 0x6e,
  0x73, 0x65, 0x5f, 0x36, 0x2f, 0x4d, 0x61, 0x74, 0x4d, 0x75, 0x6c, 0x00,
  0x02, 0x00, 0x00, 0x00, 0x10, 0x00, 0x00, 0x00, 0x10, 0x00, 0x00, 0x00,
  0x02, 0xfa, 0xff, 0xff, 0x00, 0x00, 0x00, 0x01, 0x18, 0x00, 0x00, 0x00,
  0x18, 0x00, 0x00, 0x00, 0x08, 0x00, 0x00, 0x00, 0x00, 0x00, 0x00, 0x02,
  0x50, 0x00, 0x00, 0x00, 0x04, 0x00, 0x04, 0x00, 0x04, 0x00, 0x00, 0x00,
  0x3e, 0x00, 0x00, 0x00, 0x73, 0x65, 0x71, 0x75, 0x65, 0x6e, 0x74, 0x69,
  0x61, 0x6c, 0x5f, 0x33, 0x2f, 0x67, 0x6c, 0x6f, 0x62, 0x61, 0x6c, 0x5f,
  0x61, 0x76, 0x65, 0x72, 0x61, 0x67, 0x65, 0x5f, 0x70, 0x6f, 0x6f, 0x6c,
  0x69, 0x6e, 0x67, 0x32, 0x64, 0x5f, 0x32, 0x2f, 0x4d, 0x65, 0x61, 0x6e,
  0x2f, 0x72, 0x65, 0x64, 0x75, 0x63, 0x74, 0x69, 0x6f, 0x6e, 0x5f, 0x69,
  0x6e, 0x64, 0x69, 0x63, 0x65, 0x73, 0x00, 0x00, 0x01, 0x00, 0x00, 0x00,
  0x02, 0x00, 0x00, 0x00, 0x72, 0xfa, 0xff, 0xff, 0x00, 0x00, 0x00, 0x01,
  0x14, 0x00, 0x00, 0x00, 0x34, 0x00, 0x00, 0x00, 0x07, 0x00, 0x00, 0x00,
  0x00, 0x00, 0x00, 0x02, 0x58, 0x00, 0x00, 0x00, 0x5c, 0xfa, 0xff, 0xff,
  0x08, 0x00, 0x00, 0x00, 0x14, 0x00, 0x00, 0x00, 0x01, 0x00, 0x00, 0x00,
  0x00, 0x00, 0x00, 0x00, 0x00, 0x00, 0x00, 0x00, 0x00, 0x00, 0x00, 0x00,
  0x01, 0x00, 0x00, 0x00, 0x99, 0xe8, 0x0e, 0x3a, 0x2b, 0x00, 0x00, 0x00,
  0x73, 0x65, 0x71, 0x75, 0x65, 0x6e, 0x74, 0x69, 0x61, 0x6c, 0x5f, 0x33,
  0x2f, 0x64, 0x65, 0x6e, 0x73, 0x65, 0x5f, 0x36, 0x2f, 0x42, 0x69, 0x61,
  0x73, 0x41, 0x64, 0x64, 0x2f, 0x52, 0x65, 0x61, 0x64, 0x56, 0x61, 0x72,
  0x69, 0x61, 0x62, 0x6c, 0x65, 0x4f, 0x70, 0x00, 0x01, 0x00, 0x00, 0x00,
  0x10, 0x00, 0x00, 0x00, 0xea, 0xfa, 0xff, 0xff, 0x00, 0x00, 0x00, 0x01,
  0x14, 0x00, 0x00, 0x00, 0x34, 0x00, 0x00, 0x00, 0x06, 0x00, 0x00, 0x00,
  0x00, 0x00, 0x00, 0x02, 0x58, 0x00, 0x00, 0x00, 0xd4, 0xfa, 0xff, 0xff,
  0x08, 0x00, 0x00, 0x00, 0x14, 0x00, 0x00, 0x00, 0x01, 0x00, 0x00, 0x00,
  0x00, 0x00, 0x00, 0x00, 0x00, 0x00, 0x00, 0x00, 0x00, 0x00, 0x00, 0x00,
  0x01, 0x00, 0x00, 0x00, 0x02, 0x15, 0x37, 0x3a, 0x2b, 0x00, 0x00, 0x00,
  0x73, 0x65, 0x71, 0x75, 0x65, 0x6e, 0x74, 0x69, 0x61, 0x6c, 0x5f, 0x33,
  0x2f, 0x64, 0x65, 0x6e, 0x73, 0x65, 0x5f, 0x37, 0x2f, 0x42, 0x69, 0x61,
  0x73, 0x41, 0x64, 0x64, 0x2f, 0x52, 0x65, 0x61, 0x64, 0x56, 0x61, 0x72,
  0x69, 0x61, 0x62, 0x6c, 0x65, 0x4f, 0x70, 0x00, 0x01, 0x00, 0x00, 0x00,
  0x04, 0x00, 0x00, 0x00, 0x62, 0xfb, 0xff, 0xff, 0x00, 0x00, 0x00, 0x01,
  0x14, 0x00, 0x00, 0x00, 0x74, 0x01, 0x00, 0x00, 0x05, 0x00, 0x00, 0x00,
  0x00, 0x00, 0x00, 0x09, 0x8c, 0x01, 0x00, 0x00, 0xe4, 0xf9, 0xff, 0xff,
  0x10, 0x00, 0x00, 0x00, 0x90, 0x00, 0x00, 0x00, 0xd0, 0x00, 0x00, 0x00,
  0x10, 0x01, 0x00, 0x00, 0x10, 0x00, 0x00, 0x00, 0x00, 0x00, 0x00, 0x00,
  0x00, 0x00, 0x00, 0x00, 0x00, 0x00, 0x00, 0x00, 0x00, 0x00, 0x00, 0x00,
  0x00, 0x00, 0x00, 0x00, 0x00, 0x00, 0x00, 0x00, 0x00, 0x00, 0x00, 0x00,
  0x00, 0x00, 0x00, 0x00, 0x00, 0x00, 0x00, 0x00, 0x00, 0x00, 0x00, 0x00,
  0x00, 0x00, 0x00, 0x00, 0x00, 0x00, 0x00, 0x00, 0x00, 0x00, 0x00, 0x00,
  0x00, 0x00, 0x00, 0x00, 0x00, 0x00, 0x00, 0x00, 0x00, 0x00, 0x00, 0x00,
  0x00, 0x00, 0x00, 0x00, 0x00, 0x00, 0x00, 0x00, 0x00, 0x00, 0x00, 0x00,
  0x00, 0x00, 0x00, 0x00, 0x00, 0x00, 0x00, 0x00, 0x00, 0x00, 0x00, 0x00,
  0x00, 0x00, 0x00, 0x00, 0x00, 0x00, 0x00, 0x00, 0x00, 0x00, 0x00, 0x00,
  0x00, 0x00, 0x00, 0x00, 0x00, 0x00, 0x00, 0x00, 0x00, 0x00, 0x00, 0x00,
  0x00, 0x00, 0x00, 0x00, 0x00, 0x00, 0x00, 0x00, 0x00, 0x00, 0x00, 0x00,
  0x00, 0x00, 0x00, 0x00, 0x10, 0x00, 0x00, 0x00, 0x20, 0x5e, 0x37, 0x3b,
  0x96, 0xed, 0xa7, 0x3b, 0x1b, 0x12, 0x54, 0x3b, 0x35, 0x64, 0x87, 0x3b,
  0x26, 0x2e, 0x81, 0x3b, 0xb7, 0x71, 0x3b, 0x3b, 0x1a, 0x82, 0xc7, 0x3b,
  0xf2, 0xd3, 0x4b, 0x3b, 0x21, 0x66, 0x60, 0x3b, 0xd6, 0x8d, 0x43, 0x3b,
  0x2d, 0x95, 0x4f, 0x3b, 0x12, 0x09, 0x62, 0x3b, 0x82, 0x26, 0x24, 0x3b,
  0xf0, 0x6a, 0x5f, 0x3b, 0x13, 0x43, 0x81, 0x3b, 0x4d, 0xad, 0x93, 0x3b,
  0x10, 0x00, 0x00, 0x00, 0x64, 0xef, 0xb5, 0x3e, 0x25, 0xab, 0x13, 0x3f,
  0xf7, 0x69, 0xd2, 0x3e, 0x6d, 0x55, 0x06, 0x3f, 0xca, 0x2b, 0x00, 0x3f,
  0xd4, 0xfa, 0xb9, 0x3e, 0xcc, 0x3e, 0x1e, 0x3f, 0x7f, 0xce, 0xba, 0x3e,
  0x55, 0xa5, 0xde, 0x3e, 0xba, 0x06, 0xc2, 0x3e, 0xa8, 0x65, 0xc4, 0x3e,
  0xf9, 0xce, 0xcf, 0x3e, 0x35, 0xde, 0xa2, 0x3e, 0x1a, 0xac, 0xdd, 0x3e,
  0x8d, 0x40, 0x00, 0x3f, 0xf2, 0x85, 0x12, 0x3f, 0x10, 0x00, 0x00, 0x00,
  0x12, 0xac, 0x75, 0xbe, 0xbb, 0x9d, 0x26, 0xbf, 0x71, 0xa8, 0x95, 0xbe,
  0x2d, 0x29, 0x6f, 0xbe, 0xe4, 0x6a, 0x9a, 0xbe, 0x80, 0xee, 0x9d, 0xbe,
  0x16, 0xf3, 0x45, 0xbf, 0x4a, 0x3c, 0xca, 0xbe, 0xd7, 0x6b, 0xc7, 0xbe,
  0x88, 0x47, 0x8c, 0xbe, 0x03, 0xf6, 0xcd, 0xbe, 0x00, 0x45, 0xe0, 0xbe,
  0x40, 0xac, 0x88, 0xbe, 0x5d, 0x9c, 0x58, 0xbe, 0x1f, 0x46, 0x5a, 0xbe,
  0x81, 0x7d, 0x57, 0xbe, 0x1c, 0x00, 0x00, 0x00, 0x73, 0x65, 0x71, 0x75,
  0x65, 0x6e, 0x74, 0x69, 0x61, 0x6c, 0x5f, 0x33, 0x2f, 0x63, 0x6f, 0x6e,
  0x76, 0x32, 0x64, 0x5f, 0x39, 0x2f, 0x43, 0x6f, 0x6e, 0x76, 0x32, 0x44,
  0x00, 0x00, 0x00, 0x00, 0x04, 0x00, 0x00, 0x00, 0x10, 0x00, 0x00, 0x00,
  0x03, 0x00, 0x00, 0x00, 0x03, 0x00, 0x00, 0x00, 0x10, 0x00, 0x00, 0x00,
  0x1a, 0xfd, 0xff, 0xff, 0x00, 0x00, 0x00, 0x01, 0x14, 0x00, 0x00, 0x00,
  0x74, 0x01, 0x00, 0x00, 0x04, 0x00, 0x00, 0x00, 0x00, 0x00, 0x00, 0x09,
  0x8c, 0x01, 0x00, 0x00, 0x9c, 0xfb, 0xff, 0xff, 0x10, 0x00, 0x00, 0x00,
  0x90, 0x00, 0x00, 0x00, 0xd0, 0x00, 0x00, 0x00, 0x10, 0x01, 0x00, 0x00,
  0x10, 0x00, 0x00, 0x00, 0x00, 0x00, 0x00, 0x00, 0x00, 0x00, 0x00, 0x00,
  0x00, 0x00, 0x00, 0x00, 0x00, 0x00, 0x00, 0x00, 0x00, 0x00, 0x00, 0x00,
  0x00, 0x00, 0x00, 0x00, 0x00, 0x00, 0x00, 0x00, 0x00, 0x00, 0x00, 0x00,
  0x00, 0x00, 0x00, 0x00, 0x00, 0x00, 0x00, 0x00, 0x00, 0x00, 0x00, 0x00,
  0x00, 0x00, 0x00, 0x00, 0x00, 0x00, 0x00, 0x00, 0x00, 0x00, 0x00, 0x00,
  0x00, 0x00, 0x00, 0x00, 0x00, 0x00, 0x00, 0x00, 0x00, 0x00, 0x00, 0x00,
  0x00, 0x00, 0x00, 0x00, 0x00, 0x00, 0x00, 0x00, 0x00, 0x00, 0x00, 0x00,
  0x00, 0x00, 0x00, 0x00, 0x00, 0x00, 0x00, 0x00, 0x00, 0x00, 0x00, 0x00,
  0x00, 0x00, 0x00, 0x00, 0x00, 0x00, 0x00, 0x00, 0x00, 0x00, 0x00, 0x00,
  0x00, 0x00, 0x00, 0x00, 0x00, 0x00, 0x00, 0x00, 0x00, 0x00, 0x00, 0x00,
  0x00, 0x00, 0x00, 0x00, 0x00, 0x00, 0x00, 0x00, 0x00, 0x00, 0x00, 0x00,
  0x10, 0x00, 0x00, 0x00, 0x3e, 0x14, 0xf4, 0x3a, 0x05, 0xe1, 0x98, 0x3b,
  0xa3, 0x8d, 0x9b, 0x3b, 0x62, 0x46, 0xbb, 0x3a, 0xa1, 0x20, 0x90, 0x3b,
  0xdb, 0xbf, 0xb1, 0x3b, 0x53, 0x1a, 0x9a, 0x3b, 0xc6, 0xe9, 0x85, 0x3b,
  0xdf, 0xca, 0x91, 0x3b, 0xd7, 0xb2, 0x85, 0x3b, 0x94, 0x18, 0x8a, 0x3b,
  0xd2, 0x64, 0xbe, 0x3b, 0x64, 0xf0, 0xdf, 0x3b, 0xa4, 0xb7, 0xab, 0x3b,
  0x37, 0x6f, 0x75, 0x3b, 0x04, 0xbf, 0xa0, 0x3b, 0x10, 0x00, 0x00, 0x00,
  0xa6, 0x26, 0x1d, 0xbb, 0xb8, 0x80, 0x09, 0x3f, 0x02, 0xed, 0x98, 0x3e,
  0xbf, 0x86, 0xc3, 0x3d, 0x68, 0x55, 0x94, 0x3e, 0x5b, 0x5c, 0x30, 0x3f,
  0xc1, 0x16, 0x6c, 0x3d, 0x54, 0xef, 0xd5, 0x3e, 0xb0, 0x1f, 0x07, 0x3f,
  0x71, 0xa7, 0x04, 0x3f, 0xf7, 0xdf, 0xe6, 0x3e, 0x29, 0xb5, 0xcb, 0x3e,
  0x97, 0x4d, 0xb4, 0x3d, 0xa0, 0xcc, 0xba, 0x3e, 0x59, 0x84, 0xf3, 0x3e,
  0x86, 0x7d, 0x1f, 0x3f, 0x10, 0x00, 0x00, 0x00, 0x16, 0x2c, 0x72, 0xbe,
  0x43, 0xaf, 0x17, 0xbf, 0x88, 0x56, 0x1a, 0xbf, 0xd5, 0xcf, 0x39, 0xbe,
  0x60, 0x00, 0x0f, 0xbf, 0xf6, 0x2e, 0x90, 0x3d, 0x1e, 0xe6, 0x18, 0xbf,
  0xf2, 0xdd, 0x04, 0xbf, 0x49, 0xa7, 0x10, 0xbf, 0xdd, 0x99, 0x51, 0xbd,
  0x63, 0x04, 0x09, 0xbf, 0x08, 0xe8, 0x3c, 0xbf, 0x83, 0x30, 0x5e, 0xbf,
  0x35, 0x60, 0x2a, 0xbf, 0xb6, 0x26, 0xc7, 0xbe, 0x90, 0xb5, 0xfb, 0xbe,
  0x1c, 0x00, 0x00, 0x00, 0x73, 0x65, 0x71, 0x75, 0x65, 0x6e, 0x74, 0x69,
  0x61, 0x6c, 0x5f, 0x33, 0x2f, 0x63, 0x6f, 0x6e, 0x76, 0x32, 0x64, 0x5f,
  0x38, 0x2f, 0x43, 0x6f, 0x6e, 0x76, 0x32, 0x44, 0x00, 0x00, 0x00, 0x00,
  0x04, 0x00, 0x00, 0x00, 0x10, 0x00, 0x00, 0x00, 0x03, 0x00, 0x00, 0x00,
  0x03, 0x00, 0x00, 0x00, 0x01, 0x00, 0x00, 0x00, 0xd2, 0xfe, 0xff, 0xff,
  0x00, 0x00, 0x00, 0x01, 0x14, 0x00, 0x00, 0x00, 0xe4, 0x00, 0x00, 0x00,
  0x03, 0x00, 0x00, 0x00, 0x00, 0x00, 0x00, 0x02, 0x0c, 0x01, 0x00, 0x00,
  0xbc, 0xfe, 0xff, 0xff, 0x08, 0x00, 0x00, 0x00, 0x88, 0x00, 0x00, 0x00,
  0x10, 0x00, 0x00, 0x00, 0x00, 0x00, 0x00, 0x00, 0x00, 0x00, 0x00, 0x00,
  0x00, 0x00, 0x00, 0x00, 0x00, 0x00, 0x00, 0x00, 0x00, 0x00, 0x00, 0x00,
  0x00, 0x00, 0x00, 0x00, 0x00, 0x00, 0x00, 0x00, 0x00, 0x00, 0x00, 0x00,
  0x00, 0x00, 0x00, 0x00, 0x00, 0x00, 0x00, 0x00, 0x00, 0x00, 0x00, 0x00,
  0x00, 0x00, 0x00, 0x00, 0x00, 0x00, 0x00, 0x00, 0x00, 0x00, 0x00, 0x00,
  0x00, 0x00, 0x00, 0x00, 0x00, 0x00, 0x00, 0x00, 0x00, 0x00, 0x00, 0x00,
  0x00, 0x00, 0x00, 0x00, 0x00, 0x00, 0x00, 0x00, 0x00, 0x00, 0x00, 0x00,
  0x00, 0x00, 0x00, 0x00, 0x00, 0x00, 0x00, 0x00, 0x00, 0x00, 0x00, 0x00,
  0x00, 0x00, 0x00, 0x00, 0x00, 0x00, 0x00, 0x00, 0x00, 0x00, 0x00, 0x00,
  0x00, 0x00, 0x00, 0x00, 0x00, 0x00, 0x00, 0x00, 0x00, 0x00, 0x00, 0x00,
  0x00, 0x00, 0x00, 0x00, 0x00, 0x00, 0x00, 0x00, 0x00, 0x00, 0x00, 0x00,
  0x10, 0x00, 0x00, 0x00, 0xe3, 0xdf, 0x00, 0x39, 0xec, 0x0b, 0x6c, 0x39,
  0x33, 0x0c, 0x15, 0x39, 0xcf, 0x4f, 0x3e, 0x39, 0xc1, 0x94, 0x35, 0x39,
  0x58, 0xbd, 0x03, 0x39, 0xed, 0x37, 0x8c, 0x39, 0x22, 0x41, 0x0f, 0x39,
  0x51, 0xb6, 0x1d, 0x39, 0x7c, 0x70, 0x09, 0x39, 0xb5, 0xe4, 0x11, 0x39,
  0xc2, 0xdc, 0x1e, 0x39, 0x8f, 0xbc, 0xe6, 0x38, 0xc6, 0x05, 0x1d, 0x39,
  0x2b, 0xb2, 0x35, 0x39, 0xae, 0x94, 0x4f, 0x39, 0x2c, 0x00, 0x00, 0x00,
  0x73, 0x65, 0x71, 0x75, 0x65, 0x6e, 0x74, 0x69, 0x61, 0x6c, 0x5f, 0x33,
  0x2f, 0x63, 0x6f, 0x6e, 0x76, 0x32, 0x64, 0x5f, 0x39, 0x2f, 0x42, 0x69,
  0x61, 0x73, 0x41, 0x64, 0x64, 0x2f, 0x52, 0x65, 0x61, 0x64, 0x56, 0x61,
  0x72, 0x69, 0x61, 0x62, 0x6c, 0x65, 0x4f, 0x70, 0x00, 0x00, 0x00, 0x00,
  0x01, 0x00, 0x00, 0x00, 0x10, 0x00, 0x00, 0x00, 0x00, 0x00, 0x16, 0x00,
  0x1c, 0x00, 0x18, 0x00, 0x17, 0x00, 0x10, 0x00, 0x0c, 0x00, 0x08, 0x00,
  0x00, 0x00, 0x00, 0x00, 0x00, 0x00, 0x07, 0x00, 0x16, 0x00, 0x00, 0x00,
  0x00, 0x00, 0x00, 0x01, 0x20, 0x00, 0x00, 0x00, 0xf0, 0x00, 0x00, 0x00,
  0x02, 0x00, 0x00, 0x00, 0x00, 0x00, 0x00, 0x02, 0x18, 0x01, 0x00, 0x00,
  0x0c, 0x00, 0x0c, 0x00, 0x00, 0x00, 0x00, 0x00, 0x08, 0x00, 0x04, 0x00,
  0x0c, 0x00, 0x00, 0x00, 0x08, 0x00, 0x00, 0x00, 0x88, 0x00, 0x00, 0x00,
  0x10, 0x00, 0x00, 0x00, 0x00, 0x00, 0x00, 0x00, 0x00, 0x00, 0x00, 0x00,
  0x00, 0x00, 0x00, 0x00, 0x00, 0x00, 0x00, 0x00, 0x00, 0x00, 0x00, 0x00,
  0x00, 0x00, 0x00, 0x00, 0x00, 0x00, 0x00, 0x00, 0x00, 0x00, 0x00, 0x00,
  0x00, 0x00, 0x00, 0x00, 0x00, 0x00, 0x00, 0x00, 0x00, 0x00, 0x00, 0x00,
  0x00, 0x00, 0x00, 0x00, 0x00, 0x00, 0x00, 0x00, 0x00, 0x00, 0x00, 0x00,
  0x00, 0x00, 0x00, 0x00, 0x00, 0x00, 0x00, 0x00, 0x00, 0x00, 0x00, 0x00,
  0x00, 0x00, 0x00, 0x00, 0x00, 0x00, 0x00, 0x00, 0x00, 0x00, 0x00, 0x00,
  0x00, 0x00, 0x00, 0x00, 0x00, 0x00, 0x00, 0x00, 0x00, 0x00, 0x00, 0x00,
  0x00, 0x00, 0x00, 0x00, 0x00, 0x00, 0x00, 0x00, 0x00, 0x00, 0x00, 0x00,
  0x00, 0x00, 0x00, 0x00, 0x00, 0x00, 0x00, 0x00, 0x00, 0x00, 0x00, 0x00,
  0x00, 0x00, 0x00, 0x00, 0x00, 0x00, 0x00, 0x00, 0x00, 0x00, 0x00, 0x00,
  0x10, 0x00, 0x00, 0x00, 0x94, 0xbc, 0xc4, 0x38, 0xbb, 0x73, 0x76, 0x39,
  0x62, 0xc3, 0x7a, 0x39, 0x4f, 0xf3, 0x96, 0x38, 0x0f, 0x58, 0x68, 0x39,
  0xc4, 0x45, 0x8f, 0x39, 0xcd, 0x6c, 0x78, 0x39, 0xb8, 0xe0, 0x57, 0x39,
  0x31, 0x07, 0x6b, 0x39, 0x2a, 0x88, 0x57, 0x39, 0xef, 0x9e, 0x5e, 0x39,
  0xe1, 0x76, 0x99, 0x39, 0xc6, 0x80, 0xb4, 0x39, 0x13, 0x69, 0x8a, 0x39,
  0x40, 0xd4, 0x45, 0x39, 0x38, 0x91, 0x81, 0x39, 0x2c, 0x00, 0x00, 0x00,
  0x73, 0x65, 0x71, 0x75, 0x65, 0x6e, 0x74, 0x69, 0x61, 0x6c, 0x5f, 0x33,
  0x2f, 0x63, 0x6f, 0x6e, 0x76, 0x32, 0x64, 0x5f, 0x38, 0x2f, 0x42, 0x69,
  0x61, 0x73, 0x41, 0x64, 0x64, 0x2f, 0x52, 0x65, 0x61, 0x64, 0x56, 0x61,
  0x72, 0x69, 0x61, 0x62, 0x6c, 0x65, 0x4f, 0x70, 0x00, 0x00, 0x00, 0x00,
  0x01, 0x00, 0x00, 0x00, 0x10, 0x00, 0x00, 0x00, 0x00, 0x00, 0x16, 0x00,
  0x20, 0x00, 0x1c, 0x00, 0x1b, 0x00, 0x14, 0x00, 0x10, 0x00, 0x0c, 0x00,
  0x00, 0x00, 0x00, 0x00, 0x08, 0x00, 0x07, 0x00, 0x16, 0x00, 0x00, 0x00,
  0x00, 0x00, 0x00, 0x01, 0x18, 0x00, 0x00, 0x00, 0x34, 0x00, 0x00, 0x00,
  0x68, 0x00, 0x00, 0x00, 0x01, 0x00, 0x00, 0x00, 0x00, 0x00, 0x00, 0x09,
  0x80, 0x00, 0x00, 0x00, 0x04, 0x00, 0x00, 0x00, 0xff, 0xff, 0xff, 0xff,
  0xfa, 0x00, 0x00, 0x00, 0x03, 0x00, 0x00, 0x00, 0x01, 0x00, 0x00, 0x00,
  0x0c, 0x00, 0x14, 0x00, 0x10, 0x00, 0x0c, 0x00, 0x08, 0x00, 0x04, 0x00,
  0x0c, 0x00, 0x00, 0x00, 0x10, 0x00, 0x00, 0x00, 0x18, 0x00, 0x00, 0x00,
  0x1c, 0x00, 0x00, 0x00, 0x20, 0x00, 0x00, 0x00, 0x01, 0x00, 0x00, 0x00,
  0x0d, 0x00, 0x00, 0x00, 0x00, 0x00, 0x00, 0x00, 0x01, 0x00, 0x00, 0x00,
  0x68, 0x58, 0x4e, 0x3d, 0x01, 0x00, 0x00, 0x00, 0x52, 0x3d, 0xb8, 0x40,
  0x01, 0x00, 0x00, 0x00, 0xcd, 0xd6, 0xe2, 0xc0, 0x1e, 0x00, 0x00, 0x00,
  0x73, 0x65, 0x72, 0x76, 0x69, 0x6e, 0x67, 0x5f, 0x64, 0x65, 0x66, 0x61,
  0x75, 0x6c, 0x74, 0x5f, 0x69, 0x6e, 0x70, 0x75, 0x74, 0x5f, 0x35, 0x3a,
  0x30, 0x5f, 0x69, 0x6e, 0x74, 0x38, 0x00, 0x00, 0x04, 0x00, 0x00, 0x00,
  0x01, 0x00, 0x00, 0x00, 0xfa, 0x00, 0x00, 0x00, 0x03, 0x00, 0x00, 0x00,
  0x01, 0x00, 0x00, 0x00, 0x06, 0x00, 0x00, 0x00, 0x7c, 0x00, 0x00, 0x00,
  0x5c, 0x00, 0x00, 0x00, 0x48, 0x00, 0x00, 0x00, 0x34, 0x00, 0x00, 0x00,
  0x24, 0x00, 0x00, 0x00, 0x04, 0x00, 0x00, 0x00, 0xa8, 0xff, 0xff, 0xff,
  0x06, 0x00, 0x00, 0x00, 0x02, 0x00, 0x00, 0x00, 0x00, 0x00, 0x00, 0x06,
  0x0c, 0x00, 0x0c, 0x00, 0x0b, 0x00, 0x00, 0x00, 0x00, 0x00, 0x04, 0x00,
  0x0c, 0x00, 0x00, 0x00, 0x72, 0x00, 0x00, 0x00, 0x00, 0x00, 0x00, 0x72,
  0xd0, 0xff, 0xff, 0xff, 0x09, 0x00, 0x00, 0x00, 0x04, 0x00, 0x00, 0x00,
  0x00, 0x00, 0x00, 0x09, 0xe0, 0xff, 0xff, 0xff, 0x28, 0x00, 0x00, 0x00,
  0x02, 0x00, 0x00, 0x00, 0x00, 0x00, 0x00, 0x28, 0xf0, 0xff, 0xff, 0xff,
  0x01, 0x00, 0x00, 0x00, 0x02, 0x00, 0x00, 0x00, 0x00, 0x00, 0x00, 0x01,
  0x0c, 0x00, 0x10, 0x00, 0x0f, 0x00, 0x00, 0x00, 0x08, 0x00, 0x04, 0x00,
  0x0c, 0x00, 0x00, 0x00, 0x03, 0x00, 0x00, 0x00, 0x03, 0x00, 0x00, 0x00,
  0x00, 0x00, 0x00, 0x03
};
unsigned int model_tflite_len = 8200;
